{"format": "levi-bpe-v1", "merges": [["i", "n"], ["o", "n"], ["e", "r"], ["t", "h"], ["a", "n"], ["o", "r"], ["e", "s"], ["t", "i"], ["e", "n"], ["o", "u"], ["r", "e"], ["in", "g"], ["a", "l"], ["i", "s"], ["th", "e"], ["e", "d"], ["a", "t"], ["r", "o"], ["ti", "on"], ["a", "r"], ["an", "d"], ["l", "e"], ["a", "s"], ["t", "o"], ["i", "t"], ["o", "f"], ["s", "t"], ["e", "c"], ["i", "c"], ["en", "t"], ["ou", "r"], ["o", "m"], ["s", "e"], ["r", "a"], ["l", "l"], ["f", "or"], ["d", "e"], ["a", "tion"], ["c", "h"], ["t", "er"], ["s", "i"], ["p", "ro"], ["c", "e"], ["t", "u"], ["T", "h"], ["w", "i"], ["v", "e"], ["a", "m"], ["v", "er"], ["m", "ent"], ["a", "b"], ["e", "x"], ["2", "0"], ["m", "a"], ["b", "e"], ["g", "ra"], ["s", "."], ["s", ","], ["r", "i"], ["o", "w"], ["o", "l"], ["g", "e"], ["c", "our"], ["om", "p"], ["i", "l"], ["a", "d"], ["a", "c"], ["a", "re"], ["y", "ou"], ["u", "s"], ["I", "n"], ["g", "n"], ["u", "n"], ["r", "es"], ["o", "t"], ["l", "y"], ["e", "t"], ["e", "m"], ["P", "ro"], ["it", "y"], ["u", "c"], ["u", "r"], ["a", "y"], ["C", "S"], ["h", "t"], ["ec", "t"], ["c", "l"], ["q", "u"], ["u", "t"], ["tu", "re"], ["i", "d"], ["o", "p"], ["w", "e"], ["w", "or"], ["cour", "se"], ["a", "p"], ["\u00c2", "\u0142"], ["Th", "e"], ["wi", "ll"], ["u", "l"], ["om", "e"], ["n", "e"], ["gra", "m"], ["wi", "th"], ["wor", "k"], ["1", "0"], ["at", "e"], ["in", "e"], ["ti", "c"], ["al", "l"], ["c", "on"], ["p", "l"], ["i", "m"], ["as", "s"], ["j", "ect"], ["v", "i"], ["S", "t"], ["\u00e2", "\u0122"], ["c", "omp"], ["si", "on"], ["e", "l"], ["th", "at"], ["s", "u"], ["k", "e"], ["ed", "u"], ["u", "d"], ["si", "gn"], ["20", "1"], ["m", "e"], ["d", "ay"], ["c", "i"], ["n", "ot"], ["c", "o"], ["gram", "m"], ["y", "our"], ["u", "e"], ["or", "i"], ["er", "e"], ["p", "o"], ["p", "er"], ["is", "t"], ["b", "le"], ["f", "ic"], ["n", "i"], ["th", "is"], ["w", "h"], ["ou", "t"], ["a", "ge"], ["o", "k"], ["gramm", "ing"], ["W", "e"], ["o", "d"], [")", ","], ["an", "g"], ["tion", "s"], ["ec", "ture"], ["ar", "n"], ["R", "e"], ["s", "h"], ["t", "ro"], ["s", ":"], ["p", "le"], ["p", "h"], ["*", "*"], ["C", "omp"], ["en", "ce"], ["h", "a"], ["es", "t"], ["u", "ter"], ["ht", "t"], ["/", "/"], [".", "edu"], ["l", "o"], ["b", "y"], ["htt", "p"], ["ver", "s"], ["y", "st"], ["f", "i"], ["es", "s"], ["le", "c"], ["\u00c2\u0142", "\u0120"], ["st", "r"], ["yst", "em"], ["1", "1"], ["d", "i"], ["sign", "ment"], ["a", "ch"], ["ro", "m"], ["or", "e"], ["ou", "n"], ["L", "ecture"], ["d", "er"], ["d", "uc"], ["ble", "m"], ["t", "e"], ["a", "g"], ["f", "rom"], ["c", "an"], ["u", "p"], ["es", ","], ["st", "ud"], ["p", "ar"], ["w", "w"], ["A", "n"], ["U", "ni"], ["s", "es"], ["i", "g"], ["g", "ori"], ["t", "s"], ["th", "m"], ["th", "er"], ["for", "m"], ["C", "on"], ["A", "s"], ["i", "al"], ["as", "e"], ["cl", "ass"], ["i", "z"], ["s", "p"], ["gori", "thm"], ["re", "c"], ["a", "v"], ["or", "y"], ["ha", "ve"], ["e", "w"], ["en", "d"], ["s", "o"], ["arn", "ing"], ["vers", "ity"], ["t", "a"], ["u", "m"], ["E", "x"], ["i", "gn"], ["c", "us"], ["at", "a"], ["stud", "ent"], ["S", "e"], ["ar", "ch"], ["Uni", "versity"], ["m", "o"], ["b", "o"], ["e", "k"], ["f", "er"], [":", "//"], ["http", "://"], ["l", "d"], [".edu", "/"], ["tro", "duc"], ["ab", "le"], ["C", "h"], ["str", "uc"], ["ac", "k"], ["'", "s"], ["id", "es"], ["on", "e"], ["pro", "ject"], ["1", "5"], ["1", "2"], ["m", "at"], ["c", "om"], ["C", "our"], ["ex", "t"], ["b", "ut"], ["d", "o"], ["\u00e2\u0122", "\u0136"], ["d", "es"], ["er", "s"], ["Th", "is"], ["ome", "work"], ["ic", "s"], ["pro", "blem"], ["f", "in"], ["Y", "ou"], ["u", "se"], ["ra", "c"], ["or", "ne"], ["or", "t"], ["ation", "s"], ["orne", "ll"], ["pro", "gramming"], ["i", "p"], ["ar", "d"], ["ol", "u"], ["it", "e"], ["l", "ides"], ["ar", "y"], ["l", "ine"], ["0", "0"], ["t", "w"], ["ti", "ve"], ["Cour", "se"], ["l", "i"], ["ang", "u"], ["i", "r"], ["an", "y"], ["ing", ","], ["Comp", "uter"], ["ou", "ld"], ["u", "st"], ["ve", "l"], ["is", "cus"], ["D", "e"], ["tu", "res"], ["3", "0"], ["an", "t"], ["cour", "ses"], ["troduc", "tion"], ["b", "er"], [")", "."], ["c", "s"], ["r", "ou"], ["L", "e"], ["es", "."], ["as", "signment"], ["p", "r"], ["as", "t"], ["i", "f"], ["o", "ther"], ["our", "ce"], ["o", "g"], ["20", "0"], ["y", "s"], ["1", "4"], ["re", "ad"], ["f", "o"], ["in", "ter"], ["student", "s"], ["un", "c"], ["i", "de"], ["at", "ed"], ["ec", "h"], ["u", "b"], ["p", "t"], ["d", "ue"], ["s", "ystem"], ["al", "gorithm"], ["ow", "n"], ["Pro", "gramming"], ["p", "m"], ["1", "9"], ["er", "ial"], ["g", "i"], [".", "c"], ["qu", "es"], ["p", "re"], ["ar", "t"], ["an", "s"], ["C", "l"], ["ex", "am"], ["bo", "ok"], ["g", "h"], ["tion", "al"], ["de", "l"], ["Pro", "ject"], ["2", "4"], ["b", "as"], ["n", "o"], ["A", "l"], ["vi", "ew"], ["am", "e"], ["\u00c2\u0142", "\u00c2\u0142"], ["for", "d"], ["s", "lides"], ["a", "f"], ["m", "in"], ["c", "ri"], ["i", "a"], ["m", "ore"], ["ment", "s"], ["a", "il"], ["G", "ra"], ["S", "ystem"], ["s", "ome"], ["ci", "ence"], ["con", "t"], ["re", "d"], ["s", "ec"], ["oun", "d"], ["l", "angu"], ["I", "f"], ["F", "or"], ["ww", "w"], ["p", "d"], ["c", "ess"], ["N", "o"], ["A", "r"], ["ic", "al"], ["p", "res"], ["In", "troduction"], ["ar", "i"], ["comp", "uter"], ["s", "ource"], ["n", "et"], ["fic", "e"], ["T", "op"], ["ab", "out"], ["an", "ford"], ["en", "er"], ["/", "2"], ["in", "t"], ["tic", "al"], ["\u0120", "\u00c2\u0142\u0120"], ["sh", "ould"], ["d", "ing"], ["v", "al"], ["h", "ow"], ["lec", "ture"], ["mat", "erial"], ["m", "it"], ["As", "signment"], ["in", "k"], ["re", "e"], ["s", "on"], ["201", "4"], ["ti", "me"], ["b", "u"], ["1", "6"], ["at", "ing"], ["we", "ek"], ["t", "or"], ["C", "o"], ["a", "ce"], ["vi", "de"], ["e", "p"], ["1", "3"], ["en", "c"], ["g", "ht"], ["le", "arning"], ["es", "e"], ["h", "our"], ["es", "day"], ["d", "iscus"], ["y", "n"], ["g", "o"], ["ic", "h"], ["N", "et"], ["ation", ","], ["of", "tw"], ["oftw", "are"], ["ma", "y"], ["re", "qu"], ["Ex", "am"], ["to", "p"], ["us", "ing"], ["in", "cl"], ["al", "ys"], ["su", "b"], ["ag", "es"], ["d", "ata"], ["alys", "is"], ["t", "r"], ["-", "-"], ["en", "g"], ["co", "de"], [".c", "s."], ["A", "d"], ["des", "ign"], ["h", "omework"], ["Le", "arning"], ["http://", "www"], ["y", "p"], ["un", "der"], ["M", "on"], ["ou", "s"], ["w", "r"], ["E", "n"], ["v", "en"], ["th", "od"], ["W", "ed"], ["pl", "ic"], ["6", "."], ["al", "so"], ["s", "er"], ["i", "ll"], ["pd", "f"], ["t", "ing"], ["h", "as"], ["co", "ver"], ["D", "ata"], ["t", "ech"], ["m", "l"], ["W", "h"], ["ple", "ment"], ["**", "CS"], ["A", "c"], ["we", "b"], ["form", "ation"], ["olu", "tions"], ["1", "8"], ["n", "ow"], ["ti", "m"], ["p", "ort"], ["an", "ce"], ["d", "u"], ["o", "c"], ["In", "ter"], ["ur", "r"], ["b", "r"], ["m", "an"], ["D", "es"], ["ic", "k"], ["l", "ist"], ["1", ":"], ["l", "ow"], ["A", "p"], ["y", ","], ["i", "ma"], ["cl", "as"], ["o", "b"], ["er", "ing"], ["T", "u"], ["on", "g"], ["s", "ing"], ["po", "st"], ["c", "ornell"], ["pres", "ent"], ["is", "h"], ["ter", "m"], ["source", ":"], ["5", "0"], ["F", "in"], ["i", "on"], ["p", "age"], ["ma", "il"], ["ok", "]"], ["par", "t"], ["S", "ch"], ["y", "th"], ["S", "ec"], ["ac", "t"], ["ne", "ed"], ["comp", "ut"], ["M", "o"], ["tion", ","], ["We", "ek"], ["[", "ok]"], ["C", "M"], ["R", "ec"], ["po", "s"], ["fin", "al"], ["v", "is"], ["ed", "."], ["St", "r"], ["c", "es"], ["g", "r"], ["I", "t"], ["H", "W"], ["N", "ot"], ["o", "s"], ["k", "ing"], ["Al", "gorithm"], ["s", "c"], ["en", "ti"], ["t", "ext"], ["langu", "age"], ["comp", "le"], ["e", "ach"], ["O", "p"], ["l", "ab"], ["ig", "ht"], ["iz", "ation"], ["E", "E"], ["ti", "v"], ["C", "ornell"], ["mo", "del"], ["S", "cience"], ["M", "e"], ["F", "e"], ["at", "es"], ["Pro", "f"], ["e", "ar"], ["om", "m"], ["tic", "s"], ["per", "i"], ["H", "omework"], ["st", "and"], ["0", "9"], ["il", "ity"], ["e", "f"], ["fi", "r"], ["struc", "tor"], ["ht", "ml"], ["'", "t"], ["z", "a"], ["o", "ver"], ["rou", "gh"], ["L", "i"], ["M", "a"], ["t", "en"], ["c", "urr"], ["yth", "on"], ["a", "u"], ["2", "5"], ["O", "c"], ["m", "es"], ["re", "l"], ["c", "ed"], ["se", "t"], ["F", "ri"], ["al", "ly"], ["ur", "ity"], ["Th", "ur"], ["We", "b"], ["le", "ase"], ["courses", "/"], ["F", "unc"], ["2", "1"], ["2", ":"], ["A", "ll"], ["e", "ver"], ["h", "ere"], ["vel", "op"], ["System", "s"], ["2", "6"], ["in", "d"], ["ul", "ar"], ["St", "anford"], ["2", "3"], ["se", "e"], ["Pro", "blem"], ["ine", "ering"], ["fir", "st"], ["ic", "e"], ["1", "7"], ["v", "an"], ["v", "ing"], ["w", "as"], ["in", "de"], ["ation", "al"], ["Top", "ic"], ["http://www", ".cs."], ["Q", "u"], ["T", "A"], ["ing", "s"], ["P", "ar"], ["gra", "ph"], ["s:", "//"], ["http", "s://"], ["an", "n"], ["re", "g"], ["pro", "gram"], ["h", "el"], ["ist", "ri"], ["rou", "p"], ["ll", "ab"], ["H", "ow"], ["sp", "ec"], ["ia", "z"], ["of", "fice"], ["th", "ese"], ["Fin", "al"], ["P", "ython"], ["iaz", "za"], ["I", "I"], ["m", "is"], ["in", "to"], ["it", "s"], ["o", "se"], ["p", "ap"], ["b", "ack"], ["le", "vel"], ["Cl", "ass"], ["3", ":"], ["de", "m"], ["ap", "p"], ["J", "av"], ["id", "term"], ["S", "h"], ["3", "."], ["t", "ed"], ["\u00e2\u0122", "\u013b"], ["a", "tive"], ["wh", "ich"], ["f", "e"], ["g", "in"], ["i", "le"], ["ol", "ic"], ["c", "re"], ["ge", "t"], ["ur", "al"], ["Comp", "ut"], ["P", "r"], ["si", "m"], ["t", "ri"], ["m", "od"], ["ma", "ke"], ["Th", "ere"], ["ig", "h"], ["af", "f"], ["Thur", "s"], ["f", "a"], ["a", "k"], ["/", "0"], ["a", "in"], ["the", "m"], ["ll", "ow"], ["ap", "ter"], [".edu/", "~"], ["li", "ke"], ["yn", "am"], ["me", "thod"], ["U", "n"], ["O", "f"], ["P", "h"], ["c", "or"], ["Gra", "ph"], ["bas", "ed"], [".edu/", "courses/"], ["P", "iazza"], ["S", "p"], ["th", "an"], ["s", "ch"], ["tu", "r"], ["p", "ri"], ["k", "now"], ["Des", "ign"], ["s", "k"], ["l", "ic"], ["lo", "ad"], ["em", "ory"], ["system", "s"], ["algorithm", "s"], ["Tu", "esday"], ["th", "rough"], ["4", ":"], ["er", ","], ["u", "re"], ["ar", "k"], ["le", "y"], ["ap", "pro"], ["olu", "tion"], ["f", "unc"], ["av", "ail"], ["An", "alysis"], ["u", "al"], ["be", "en"], ["F", "all"], ["not", "es"], ["net", "work"], ["Jav", "a"], ["avail", "able"], ["on", "d"], ["en", "s"], ["S", "tu"], ["11", ":"], ["m", "ust"], ["lec", "tures"], ["f", "u"], [")", ":"], ["r", "an"], ["i", "es"], ["s", "ol"], ["ne", "w"], ["T", "ue"], ["le", "arn"], ["im", "plement"], ["P", "lease"], ["Thurs", "day"], ["T", "o"], ["de", "ad"], ["wh", "at"], ["hour", "s"], ["requ", "i"], ["e", "."], ["I", "T"], ["1", "."], ["P", "M"], ["(", "3"], ["ul", "t"], ["l", "ate"], ["\u00e2\u0122", "\u0135"], ["problem", "s"], ["tw", "o"], ["S", "pr"], ["Exam", "ple"], ["ex", "peri"], ["h", "and"], ["ul", "ti"], ["el", "d"], ["su", "ch"], ["201", "3"], ["fer", "ence"], ["No", "v"], ["vide", "o"], ["van", "ced"], ["O", "n"], ["C", "ol"], ["w", "ay"], ["edu", "le"], ["di", "f"], ["assignment", "s"], ["ol", "og"], ["Co", "de"], ["ab", "ility"], ["2", "8"], ["A", "u"], ["I", "D"], ["u", "de"], ["p", "ect"], ["V", "ide"], ["Net", "work"], ["in", "formation"], ["ima", "ge"], ["inde", "x"], ["Topic", "s:"], ["hel", "p"], ["Spr", "ing"], ["I", "S"], ["m", "u"], ["2", "."], ["W", "or"], ["as", "k"], ["ent", "s"], ["mo", "st"], ["s", "oftware"], ["Oc", "t"], ["ke", "ley"], ["7", ":"], ["M", "at"], ["ori", "al"], ["oun", "ce"], ["pro", "cess"], ["discus", "sion"], ["er", "n"], ["or", "s"], ["th", "en"], ["f", "ul"], ["ver", "sion"], ["th", "ere"], ["g", "ener"], ["top", "ics"], ["6", ":"], ["R", "o"], [".", ","], ["rec", "t"], ["G", "ener"], ["Algorithm", "s"], ["fi", "eld"], ["4", "0"], ["ing", "."], ["c", "al"], ["D", "ec"], ["it", "ation"], ["incl", "ud"], ["En", "g"], ["istri", "but"], ["fo", "llow"], ["y", "."], ["R", "es"], ["d", "ed"], ["as", "h"], ["t", "est"], ["s", "ite"], ["ro", "w"], ["L", "ab"], ["i", "fic"], ["wh", "o"], ["M", "ach"], ["D", "iscus"], ["de", "velop"], ["g", "roup"], ["a", "dem"], ["com", "m"], ["wr", "it"], ["e", "mail"], ["g", "u"], ["P", "o"], ["ce", "p"], ["on", "line"], ["/", "cs"], ["po", "int"], ["S", "oftware"], ["under", "stand"], [".", "html"], ["r", "on"], ["c", "is"], ["d", "is"], ["Th", "u"], ["am", "es"], ["S", "et"], ["Stu", "d"], ["Discus", "sion"], ["m", "d"], ["le", "x"], ["ma", "ch"], ["us", "ed"], ["pl", "es"], ["si", "ble"], ["ti", "fic"], ["fi", "le"], [".", "pdf"], ["http://www.cs.", "cornell"], ["incl", "ude"], ["2", "2"], ["I", "m"], ["ter", "n"], ["10", "/"], ["Re", "ad"], ["ri", "ght"], ["istribut", "ed"], ["m", "y"], ["l", "ed"], ["su", "re"], ["it", "ecture"], ["ta", "in"], ["v", "ari"], ["l", "ink"], ["du", "ate"], ["Str", "uc"], ["our", "ces"], ["Of", "fice"], ["adem", "ic"], ["e", ","], ["G", "u"], ["a", "ti"], ["se", "l"], ["t", "ex"], ["enc", "y"], ["Mon", "day"], ["tech", "ni"], ["s", "olutions"], ["S", "y"], ["p", "p"], ["l", "in"], ["J", "an"], ["al", "le"], ["r", "un"], ["ur", "ing"], ["D", "ue"], ["wh", "en"], ["st", "art"], ["ap", "plic"], ["J", "o"], ["4", "5"], ["+", "+"], ["C", "al"], ["it", "es"], ["is", "ter"], ["S", "olutions"], ["/", "index"], ["the", "y"], ["course", "."], ["H", "all"], ["O", "per"], ["ta", "ke"], ["Wed", "n"], ["U", "sing"], ["curr", "ent"], ["C", "++"], ["1", "-"], ["ed", ","], ["f", "il"], ["u", "ary"], ["em", "ber"], ["d", "own"], ["sec", "tion"], ["\u0120\u00c2\u0142\u0120", "\u00c2\u0142\u0120"], ["discus", "s"], ["mis", "sion"], ["h", "igh"], ["Vide", "o"], ["t", "on"], ["n", "er"], ["m", "al"], ["T", "im"], ["tro", "l"], ["c", "oun"], ["n", "um"], ["line", "ar"], ["rac", "tical"], ["t", "yp"], ["tiv", "ity"], ["U", "C"], ["\\", "("], ["L", "ec"], ["ex", "pl"], ["Se", "p"], ["cri", "p"], ["clas", "s."], ["ynam", "ic"], ["s", "olution"], ["alle", "l"], ["p", "e"], ["M", "an"], ["v", "ed"], ["v", "id"], ["ques", "tions"], ["cri", "pt"], ["s", "cience"], ["st", "anford"], ["bu", "il"], ["CS", "50"], ["se", "mes"], ["Sec", "urity"], ["pap", "er"], ["Wedn", "esday"], ["semes", "ter"], ["h", "e"], ["a", "w"], ["B", "o"], ["G", "o"], ["p", "on"], ["B", "er"], ["ation", "."], ["C", "am"], ["p", "ut"], ["x", "im"], ["te", "ach"], ["15", "-"], ["L", "angu"], ["the", "ir"], ["fo", "cus"], ["ce", "pt"], ["bas", "ic"], ["af", "ter"], ["f", "ace"], ["an", "alysis"], ["M", "IT"], ["5", "."], ["i", "an"], ["si", "ve"], ["gra", "de"], ["Se", "e"], ["fer", "ent"], ["S", "lides"], ["m", "any"], ["ans", "w"], ["ou", "gh"], ["sub", "mit"], ["wr", "ite"], ["T", "r"], ["4", "7"], ["5", ":"], ["8", ":"], ["tu", "al"], ["e", "qu"], ["10", ":"], ["in", "ci"], ["ple", "ase"], ["ques", "tion"], ["val", "u"], ["p", "ages"], ["e", "ven"], ["y", "ear"], ["Eng", "ineering"], ["gra", "duate"], ["f", "ac"], ["on", "ly"], ["qu", "is"], ["course", ","], ["par", "tic"], ["f", "ree"], ["de", "ep"], ["st", "aff"], ["mach", "ine"], ["k", "s"], ["0", "7"], ["H", "ar"], ["'", "ll"], ["O", "ver"], ["c", "ol"], ["ect", "or"], ["Re", "g"], ["in", "troduc"], ["--", ">"], ["6.", "8"], ["Mo", "del"], ["Fri", "day"], ["M", "emory"], ["http://www.cs.cornell", ".edu/courses/"], ["ere", "quis"], ["6", "-"], ["b", "it"], ["in", "st"], ["e", "ll"], ["for", "e"], ["il", "i"], ["c", "ome"], ["fic", "i"], ["\u00c2\u0142", "\u00c2\u0142\u0120"], ["c", "red"], ["tech", "n"], ["present", "ation"], ["on", "'t"], ["tur", "n"], ["[", "dead"], ["[dead", "]"], ["C", "an"], ["at", "or"], ["ra", "y"], ["ti", "ce"], ["tu", "m"], ["op", "er"], ["we", "ll"], ["Pro", "gram"], ["Con", "t"], ["19", "9"], ["Not", "es"], ["In", "structor"], ["llab", "us"], ["A", "P"], ["5", ","], ["g", "es"], ["w", "are"], ["res", "e"], ["material", "s"], ["M", "idterm"], ["Ch", "apter"], ["e.", "g"], ["ex", "pect"], ["er", "cis"], ["http://www.cs.cornell.edu/courses/", "CS"], ["an", "tum"], ["rese", "arch"], ["2", "/"], ["2", "9"], ["at", "ch"], ["pro", "b"], ["ver", "y"], ["tion", "s,"], ["res", "s"], ["op", "en"], ["ke", "y"], ["in", "troduction"], ["th", "ub"], ["De", "ep"], ["enti", "al"], ["omm", "end"], ["olic", "y"], ["requi", "red"], ["4", "."], ["A", "b"], ["on", "-"], ["un", "d"], ["s", "ur"], ["H", "ome"], ["S", "im"], ["CS", "ci"], ["lo", "c"], ["C", "omm"], ["ounce", "ments"], ["Mach", "ine"], ["techni", "ques"], ["at", "t"], ["wor", "d"], ["project", "s"], ["v", "ard"], ["Ar", "ch"], ["text", "book"], ["Me", "thod"], ["fu", "ll"], ["experi", "ence"], ["includ", "ing"], ["s", "-"], ["A", "t"], ["s", "ti"], ["l", "ar"], ["as", "on"], ["ec", "k"], ["i", "ve"], ["the", "ma"], ["to", "ol"], ["c", "op"], ["\u00e2\u0122", "\u013e"], ["w", "ant"], ["Top", "ics"], ["T", "yp"], ["post", "ed"], ["CM", "S"], ["Op", "en"], ["Prof", "."], ["be", "fore"], ["4", "6"], ["or", "d"], ["Y", "our"], ["at", "ab"], ["be", "t"], ["ad", "d"], ["11", "/"], ["In", "te"], ["z", "ip"], ["D", "own"], ["cont", "ent"], ["in", "structor"], ["Ad", "vanced"], ["Lec", "tures"], ["crip", "tion"], ["c", "u"], ["5", "9"], ["I", "s"], ["ti", "es"], ["b", "ec"], ["c", "am"], ["fin", "d"], ["Ber", "keley"], ["3", "/"], ["1", ","], ["3", "-"], ["\\", ")"], ["in", "u"], ["S", "er"], ["r", "or"], ["C", "ar"], ["r", "ic"], ["t", "ra"], ["p", "ass"], ["\u00e2\u0122", "\u013f"], ["lo", "g"], ["up", "d"], ["D", "av"], ["the", "ory"], ["is", "ion"], ["Comput", "ing"], ["(", "e.g"], ["Down", "load"], ["m", "b"], ["2", "-"], ["O", "b"], ["P", "er"], ["B", "as"], ["en", "se"], ["ly", ","], ["L", "ist"], ["An", "n"], ["st", "rac"], ["w", "ould"], ["Assignment", "s"], ["L", "ink"], ["Stud", "ents"], ["N", "e"], ["r", "y"], ["m", "m"], [".", ")"], ["i", "x"], ["2", ","], ["2", "7"], ["S", "P"], ["n", "or"], ["v", "es"], ["ent", "ed"], ["ol", "d"], ["al", "ity"], ["M", "ay"], ["wh", "ere"], ["An", "d"], ["A", "CM"], ["Har", "vard"], ["s", "m"], ["C", "I"], ["B", "e"], ["p", "y"], ["a", "th"], ["ent", "er"], ["ma", "in"], ["op", "le"], ["N", "ew"], ["j", "ust"], ["re", "view"], ["\u00c2\u0142\u00c2\u0142", "\u00c2\u0142\u00c2\u0142"], ["cornell", ".edu"], ["sel", "f"], ["Tr", "ans"], ["5", "/"], ["8", "."], ["re", "f"], ["ul", "ation"], ["lo", "ok"], ["ta", "il"], [".", "com"], ["di", "tional"], ["In", "formation"], ["Inter", "net"], ["comple", "te"], ["follow", "ing"], ["cep", "ts"], ["Im", "plement"], ["cred", "it"], ["rac", "tice"], ["Dav", "id"], ["9", ":"], ["4", "/"], ["p", "or"], ["C", "re"], ["r", "is"], ["si", "de"], ["ne", "l"], ["s", "ist"], ["se", "arch"], ["M", "arch"], ["of", "fer"], ["12", ":"], ["read", "ing"], ["Pro", "cess"], ["f", "low"], ["pos", "it"], ["G", "ates"], ["th", "ose"], ["/index", ".html"], ["gi", "thub"], ["S", "I"], ["g", "g"], ["L", "P"], ["or", "g"], ["re", "w"], ["n", "ing"], ["is", "e"], ["D", "is"], ["ro", "om"], ["P", "res"], ["l", "im"], ["co", "vers"], ["top", "ic"], ["vis", "ion"], ["-", "level"], ["ati", "s"], ["pages", ")"], ["de", "tail"], ["E", "N"], ["M", "in"], ["b", "in"], ["P", "re"], ["ro", "s"], ["i", "tion"], ["U", "se"], ["ab", "l"], ["ess", "or"], ["in", "te"], ["p", "end"], ["200", "9"], ["pm", ","], ["op", "tim"], ["I", "EE"], ["Fe", "b"], ["eng", "ineering"], ["method", "s"], ["Sch", "edule"], ["olog", "y"], ["spec", "ific"], ["led", "ge"], ["Oper", "ating"], ["dif", "ferent"], ["Sy", "llabus"], ["rec", "ommend"], ["IEE", "E"], ["H", "e"], ["er", "."], ["CS", "10"], ["pl", "an"], ["vi", "a"], ["fi", "ed"], ["S", "ub"], ["p", "ub"], ["ind", "ow"], ["re", "ak"], ["sk", "ill"], ["d", "uring"], ["num", "ber"], ["Arch", "itecture"], ["pe", "ople"], ["posit", "ory"], ["5", "-"], ["M", "."], ["4", "-"], ["al", "y"], ["en", "sion"], ["l", "ess"], ["The", "ory"], ["L", "og"], ["inter", "est"], ["vi", "ous"], ["Un", "der"], ["func", "tional"], ["fil", "es"], [".", "stanford"], ["res", "pon"], ["qu", "antum"], ["P", "l"], ["a", ","], ["P", "S"], ["U", "N"], ["i", "er"], ["al", "s"], ["t", "al"], ["is", "m"], ["to", "m"], ["C", "om"], ["re", "ce"], ["R", "el"], ["tr", "ans"], ["l", "ong"], ["gr", "ound"], ["Not", "e"], ["v", "ice"], ["m", "idterm"], ["m", "ulti"], ["upd", "ated"], ["sm", "all"], ["L", "E"], ["c", "."], ["I", "N"], ["E", "d"], ["G", "R"], ["4", "9"], ["ec", "tion"], ["c", "s."], ["b", "ri"], ["ab", "ly"], ["L", "ine"], ["sign", "ed"], ["St", "ack"], ["go", "od"], ["Wh", "at"], ["sec", "ond"], ["coun", "t"], ["inci", "ples"], ["A", "T"], ["3", "1"], ["4", "8"], ["k", "en"], ["le", "t"], ["it", "."], ["d", "ec"], ["f", "ra"], ["ri", "l"], ["M", "ap"], ["is", "tic"], ["pl", "ay"], ["su", "p"], ["ses", "sion"], ["iz", "ed"], ["S", "ign"], ["con", "struc"], ["t", "rac"], ["og", "le"], ["ob", "ject"], ["-", "based"], ["M", "ark"], ["Res", "ources"], ["Pr", "erequis"], ["ch", "eck"], ["11:", "59"], ["k", "i"], ["U", "p"], ["re", "le"], ["le", "ge"], ["T", "ut"], ["or", "der"], ["bo", "th"], ["struc", "ture"], ["S", "ort"], ["per", "son"], ["clas", "s,"], ["ever", "y"], ["/", "2013"], ["Au", "g"], ["writ", "ten"], ["D", "istributed"], ["Cal", "Net"], ["p", "ractical"], ["d", "ynamic"], ["Cam", "l"], ["cam", "er"], [".com", "/"], ["Ap", "ril"], ["t", "y"], ["E", "C"], ["V", "i"], ["r", "ing"], ["T", "ra"], ["b", "ra"], ["a", "ve"], ["s", "am"], ["ment", "."], ["we", "en"], ["c", "all"], ["with", "out"], ["Se", "arch"], ["an", "other"], ["2014", ")"], ["langu", "ages"], ["im", "port"], ["L", "oc"], ["comple", "x"], ["rel", "ated"], ["sch", "edule"], ["Fe", "br"], ["Par", "allel"], ["answ", "er"], ["ex", "ercis"], ["Line", "ar"], ["Febr", "uary"], ["e", "v"], ["o", "v"], ["A", "D"], ["7", "."], ["l", "at"], ["y", "le"], ["am", "ent"], ["D", "et"], ["ed", "ul"], ["d", "ate"], ["pl", "o"], ["201", "6"], ["te", "am"], ["stud", "y"], ["ec", "ial"], ["T", "ext"], ["l", "ast"], ["c", "ast"], ["system", "s."], ["Re", "view"], ["form", "ance"], ["mes", "h"], ["Graph", "ics"], ["cor", "rect"], ["Struc", "tures"], ["fici", "ent"], ["lar", "ge"], ["Ob", "ject"], ["und", "ament"], ["R", "E"], ["h", "w"], ["8", "-"], ["in", "es"], ["ti", "l"], ["g", "re"], ["ch", "an"], ["tu", "t"], ["20", "10"], ["ph", "as"], ["M", "ore"], ["a", "use"], ["w", "ard"], ["struc", "tures"], ["ail", "s"], ["lec", "tr"], ["cover", "ed"], ["Ap", "plic"], ["sc", "al"], ["M", "ulti"], ["mu", "ch"], [".", "zip"], ["Ann", "ouncements"], ["s", "y"], ["O", "T"], ["M", "B"], ["3", ","], ["\u00ef", "\u00bf"], ["on", "s"], ["re", "al"], ["m", "ed"], ["it", "ing"], ["f", "all"], ["comp", "il"], ["s", "ci"], ["um", "an"], ["Th", "read"], ["ide", "as"], ["s", "ame"], ["g", "ame"], ["com", "ments"], ["http://www", "."], ["m", "ight"], ["09", "/"], ["to", "graph"], ["\u00e2\u0122\u013b", "s"], ["ch", "apter"], ["On", "line"], ["ac", "ademic"], ["Tim", "e"], ["re", "ason"], ["do", "cu"], ["Prof", "essor"], ["know", "ledge"], ["Tut", "orial"], ["tut", "orial"], ["\u00ef\u00bf", "\u00bd"], ["i", "o"], ["in", "v"], ["al", "."], ["M", "ar"], ["w", "it"], ["it", "er"], ["of", "f"], ["v", "ic"], ["in", "ce"], ["ment", ","], ["il", "ar"], ["S", "un"], ["et", "y"], ["St", "e"], ["Comp", "il"], ["in", "ts"], ["iz", "ing"], ["n", "ext"], ["00", "-"], ["T", "ech"], ["sp", "ace"], ["pro", "vide"], ["be", "low"], ["Rec", "ur"], ["llab", "or"], ["fa", "/"], ["c", "mu"], ["comm", "un"], ["Ac", "ademic"], ["Con", "trol"], ["Ac", "tivity"], ["partic", "ular"], ["Des", "cription"], ["er", "ror"], ["con", "cepts"], ["er", "nel"], ["re", "pository"], ["f", "l"], ["M", "L"], ["C", "P"], ["6", "0"], ["ou", "d"], ["and", "om"], ["ation", "s,"], ["D", "em"], ["S", "ome"], ["12", "/"], ["do", "es"], ["gra", "des"], ["exam", "ple"], ["enc", "es"], ["ish", "ed"], ["comput", "ing"], ["Op", "tim"], ["sec", "urity"], ["F", "ile"], ["ran", "ge"], ["mod", "ern"], ["buil", "d"], ["V", "ector"], ["d", "on't"], ["p", "olicy"], ["pre", "vious"], [".stanford", ".edu/"], ["Prerequis", "ites"], ["import", "ant"], ["b", "l"], ["S", "."], ["B", "u"], ["W", "i"], ["L", "o"], ["E", "."], ["(", "4"], ["Z", "h"], ["6", "6"], ["W", "r"], ["c", "ent"], ["H", "our"], ["f", "am"], ["gra", "d"], ["ri", "x"], ["all", "ow"], ["ex", "po"], ["ch", "ang"], ["rec", "ent"], ["P", "art"], ["Cl", "as"], ["time", "."], ["br", "ary"], ["part", "ment"], ["gr", "ity"], ["ta", "king"], ["tri", "ang"], ["con", "tain"], ["6.8", "5"], ["tool", "s"], ["su", "mm"], ["\u0120", "\u00c2\u0142\u00c2\u0142\u00c2\u0142\u00c2\u0142"], ["i", "fied"], ["Col", "lege"], ["docu", "ment"], ["c", "r"], ["2", ")"], ["\u00c2", "\u00a9"], ["j", "o"], ["P", "a"], ["4", ","], ["i", "ed"], ["ow", "er"], ["res", "sion"], ["is", "su"], ["me", "et"], ["lec", "tion"], ["ll", "ig"], ["V", "ir"], ["read", "y"], ["Project", "s"], [".", "mit"], ["Li", "ve"], ["at", "ural"], ["Po", "inter"], ["pos", "sible"], ["d", "istributed"], ["Gu", "est"], ["applic", "ations"], ["ing", "ton"], ["di", "vid"], ["Langu", "ages"], ["Over", "view"], ["expect", "ed"], ["ma", "thema"], ["atab", "ase"], ["V", "I"], ["D", "o"], ["A", "S"], ["6", "1"], ["in", "-"], ["m", "on"], ["th", "ing"], ["ti", "al"], ["it", ","], ["M", "ic"], ["st", "ra"], ["S", "em"], ["CS", "E"], ["h", "ome"], ["es", "sion"], ["201", "1"], ["201", "5"], ["sh", "ow"], ["E", "ach"], ["p", "ag"], ["c", "ase"], ["30", "-"], ["Se", "pt"], ["St", "art"], ["n", "ame"], ["f", "ound"], ["/", "2014"], ["design", ","], ["Func", "tional"], ["De", "velop"], ["ad", "vanced"], ["Mat", "erial"], ["di", "rect"], ["understand", "ing"], ["nor", "mal"], ["O", "Caml"], ["chan", "ge"], ["0", "8"], ["6", "8"], ["k", "t"], ["t", "re"], ["is", ","], ["G", "it"], ["ro", "ll"], ["in", "for"], ["ar", "ter"], ["pro", "v"], ["ma", "p"], ["er", "s,"], ["o", "ol"], ["il", "y"], ["10", "0"], ["ch", "all"], ["ci", "al"], ["b", "est"], ["wor", "ld"], ["gi", "e"], ["val", "ue"], ["R", "ese"], ["vis", "ed"], ["ef", "f"], ["au", "to"], ["ever", ","], ["program", "s"], ["m", "emory"], ["sol", "ving"], ["Network", "s"], ["rec", "itation"], ["con", "trol"], ["Langu", "age"], ["oper", "ating"], ["ima", "ges"], ["Bas", "ic"], ["skill", "s"], ["sup", "port"], ["Rese", "arch"], ["w", "a"], ["L", "a"], ["O", "r"], ["A", "M"], ["A", "R"], ["B", "y"], ["3", "D"], ["]", "("], ["y", "ing"], ["ll", "on"], ["ation", ":"], ["as", "ter"], ["en", "cour"], ["u", "res"], ["ly", "."], ["d", "id"], ["work", "ing"], ["10", "-"], ["tic", "s,"], ["201", "7"], ["me", "work"], ["w", "ere"], ["in", "tro"], ["lec", "t"], ["an", "ts"], ["qu", "iz"], ["f", "ew"], ["ack", "et"], ["cl", "ip"], ["h", "ard"], ["algorithm", "s,"], ["bu", "tion"], ["cont", "act"], ["sim", "ple"], ["implement", "ation"], ["ber", "keley"], ["process", "ing"], ["Method", "s"], ["Car", "ne"], ["(e.g", "."], ["SI", "G"], ["Me", "llon"], ["Carne", "gie"], ["p", "a"], ["S", "T"], ["1", "/"], ["J", "u"], ["3", "7"], ["3", "4"], ["I", "X"], ["#", "#"], ["t", "es"], ["p", "en"], ["en", "n"], ["'", "re"], ["b", "ro"], ["ra", "w"], ["ma", "de"], ["l", "ot"], ["ph", "p"], ["T", "est"], ["ing", "est"], ["ta", "u"], ["sh", "ort"], ["gi", "ve"], ["th", "ink"], ["gi", "ven"], ["man", "age"], ["clas", "si"], ["f", "act"], ["Func", "tion"], ["comput", "ational"], ["pap", "ers"], ["fe", "at"], ["be", "gin"], ["t", "ask"], ["gener", "al"], ["R", "md"], ["tific", "ial"], ["ac", "tivity"], ["@", "cornell.edu"], ["P", "ractice"], ["aly", "z"], ["rece", "ive"], ["prob", "ably"], ["Go", "ogle"], ["Vi", "ew"], ["sp", "ring"], ["bet", "ween"], ["bec", "ause"], ["llig", "ence"], ["tau", "ght"], ["i", "e"], ["S", "o"], ["s", "/"], ["T", "e"], ["6", ","], ["I", "C"], ["(", "0"], ["O", "S"], ["R", "P"], ["on", "y"], ["c", "er"], ["en", ","], ["d", "at"], ["H", "and"], ["as", "es"], ["v", "as"], ["F", "il"], ["un", "ter"], ["res", "h"], ["B", "ay"], ["O", "ut"], ["st", "ate"], ["em", "pl"], ["5", "),"], ["in", "ary"], ["pm", "."], ["Gra", "ding"], ["son", ","], ["go", "al"], ["requ", "est"], ["model", "s"], ["P", "rel"], ["ne", "ural"], ["m", "ark"], ["Jan", "uary"], ["sub", "mission"], ["s", "cript"], ["teach", "ing"], ["att", "end"], ["SP", "A"], ["ta", "ken"], ["f", "undament"], ["LE", "VI"], ["Prel", "im"], ["U", "s"], ["K", "e"], ["5", "4"], ["D", "F"], ["O", "M"], ["\"", ","], ["E", "f"], ["D", "an"], ["j", "or"], ["k", "es"], ["e", "as"], ["it", "ed"], ["P", "ri"], ["are", "d"], ["qu", "i"], ["a", "ud"], ["day", "s"], ["In", "tro"], ["str", "ing"], ["Lecture", ":"], ["t", "ory"], ["v", "ant"], ["le", "ast"], ["L", "ast"], ["al", "og"], ["b", "ility"], ["cre", "te"], ["use", "ful"], ["gra", "ded"], ["web", "site"], ["arch", "itecture"], ["applic", "ation"], ["reg", "ister"], ["cop", "y"], ["Typ", "es"], ["camer", "a"], ["per", "formance"], ["expo", "sure"], ["prov", "ides"], ["R", "acket"], ["m", "s"], ["c", "y"], ["S", "u"], ["J", "."], ["V", "M"], ["M", "al"], ["w", "ar"], ["ar", "ing"], ["c", "le"], ["t", "le"], ["ter", "s"], ["pro", "g"], ["tu", "p"], ["ve", "y"], ["o", "id"], ["pro", "gramm"], ["6", "),"], ["di", "tion"], ["-", "up"], ["sp", "/"], ["b", "ers"], ["k", "ip"], ["In", "fo"], ["ac", "cess"], ["ical", "ly"], ["val", "ent"], ["th", "ree"], ["S", "yn"], ["f", "requ"], ["str", "ong"], ["language", "."], ["o", "ice"], ["re", "ference"], ["Re", "ference"], ["writ", "ing"], ["vi", "ron"], ["Read", "ing"], ["res", "ources"], ["P", "ractical"], ["par", "allel"], ["appro", "xim"], ["valu", "ation"], ["Ar", "ray"], ["se", "mb"], ["ab", "strac"], ["Ne", "ural"], ["ori", "ented"], ["Ch", "ris"], ["Process", "ing"], ["b", "reak"], ["back", "ground"], ["@", "cs."], ["em", "phas"], ["h", "uman"], ["sim", "ilar"], ["co", "llabor"], ["How", "ever,"], ["4", "4"], ["F", "u"], ["F", "l"], ["f", "t"], ["7", "-"], ["C", "."], ["R", "R"], ["V", "er"], ["ra", "tion"], ["p", "ol"], ["un", "i"], ["J", "un"], ["om", "et"], ["ity", ","], ["qu", "e"], ["c", "ap"], ["P", "ass"], ["201", "2"], ["me", "as"], ["me", "an"], ["H", "ere"], ["od", "y"], ["fi", "x"], ["iz", "e"], ["d", "one"], ["ir", "d"], ["system", "s,"], ["pre", "t"], ["b", "ound"], ["gra", "ding"], ["com", "mit"], ["sub", "ject"], ["--", "-"], ["http://", "web"], ["vide", "os"], ["tiv", "es"], ["ed", "back"], ["appro", "ach"], ["ens", "or"], ["fu", "ture"], ["requi", "re"], ["hand", "out"], ["Gener", "al"], ["curr", "ency"], ["typ", "e"], ["th", "ough"], ["ili", "ar"], ["sti", "tu"], ["V", "ision"], ["Web", "cast"], ["De", "partment"], ["pl", "ied"], ["al", "ready"], ["D", "i"], ["e", "i"], ["i", ","], ["o", ","], ["0", ":"], ["a", "-"], ["h", "n"], ["R", "u"], ["4", ")"], ["F", "A"], ["z", "er"], ["es", ":"], ["b", "al"], ["P", "at"], ["j", "ec"], ["de", "t"], ["(", "20"], ["ed", "uc"], ["a", "ke"], ["po", "si"], ["pro", "per"], ["ph", "r"], ["en", "der"], ["S", "up"], ["B", "ig"], ["Ch", "ar"], ["s", "ort"], ["programming", ","], ["D", "if"], ["N", "ame"], ["ar", "ound"], ["V", "ari"], ["Th", "ese"], ["Wh", "en"], ["du", "ce"], ["ma", "tics"], ["Ma", "ke"], ["G", "roup"], ["olic", "ies"], ["Ro", "bo"], ["gu", "ide"], ["J", "ames"], ["tific", "ate"], ["Gu", "ide"], ["pp", "."], ["D", "ynamic"], ["ac", "cept"], ["equ", "i"], ["v", "ector"], ["n", "on-"], ["your", "self"], ["ros", "s"], ["et", "c."], ["Up", "son"], ["st", "yle"], ["r", "andom"], ["in", "divid"], [".", "kt"], ["m", "i"], ["A", "."], ["(", "P"], [".", "j"], ["N", "Y"], ["g", "er"], ["l", "es"], ["V", "al"], ["c", "at"], ["S", "at"], ["and", "-"], ["H", "as"], ["g", "it"], ["v", "s."], ["ac", "tion"], ["b", "ot"], ["se", "qu"], ["C", "op"], ["C", "all"], ["a", "im"], ["im", "ation"], ["M", "od"], ["ac", "tions"], ["pro", "duc"], ["can", "not"], ["ad", "ig"], ["se", "ts"], ["di", "rec"], ["F", "ir"], ["14", ":"], ["in", "fo"], ["U", "pd"], ["e", "val"], ["t", "ree"], ["Inter", "n"], ["Mo", "tion"], ["T", "each"], ["lab", "s"], ["n", "'t"], ["Qu", "es"], ["St", "aff"], ["om", "ain"], ["sol", "ve"], ["group", "s"], ["ch", "ron"], ["g", "ames"], ["link", "s"], ["Struc", "ture"], ["Reg", "ister"], ["AP", "H"], ["sti", "ll"], ["ord", "in"], ["bet", "ter"], ["Ab", "strac"], ["pre", "lim"], ["St", "atis"], ["detail", "s"], ["w", "indow"], ["49", "3."], ["ge", "bra"], ["e", "lectr"], ["scal", "e"], ["vic", "es"], ["cl", "oud"], ["issu", "es"], ["en", "roll"], ["chall", "eng"], ["Bay", "es"], ["ma", "jor"], ["phr", "ase"], ["equi", "valent"], ["Fir", "st"], ["GR", "APH"], ["1", ")"], ["9", "/"], ["H", "u"], ["O", "R"], ["'", "d"], ["3", "3"], ["U", "W"], ["D", "."], ["O", "O"], ["l", "er"], ["h", "er"], ["o", "th"], ["V", "is"], ["(", "and"], ["e", "le"], ["s", "it"], ["pro", "of"], ["ce", "ed"], ["o", "ve"], ["t", "ab"], ["e", "et"], ["c", "ur"], ["vi", "g"], ["vi", "r"], ["not", "e"], ["po", "se"], ["ist", "ing"], ["ul", "ts"], ["form", "at"], ["mat", "ch"], ["problem", "s."], ["fin", "ite"], ["assignment", "s,"], ["p", "ast"], ["S", "ource"], ["200", "7"], ["H", "ub"], ["exam", "s"], ["ari", "es"], ["10", "/2"], ["Exam", "s"], ["homework", "s"], ["x", "ml"], ["sing", "le"], ["l", "ight"], ["Qu", "iz"], ["th", "ings"], ["graph", "ics"], ["app", "ly"], ["in", "cre"], ["Wor", "k"], ["per", "mission"], ["S", "cript"], ["Wednesday", ","], ["partic", "ip"], ["introduc", "es"], ["Friday", ","], ["Cont", "act"], ["pend", "ent"], ["optim", "ization"], ["pub", "lic"], ["ac", "count"], ["ef", "ficient"], ["K", "ernel"], ["Clas", "s,"], ["Li", "brary"], ["infor", "ce"], ["Ju", "ly"], ["ref", "resh"], ["introduc", "tory"], ["stitu", "te"], ["FA", "Q"], ["-", "and-"], ["Git", "Hub"], ["U", "S"], ["b", "i"], ["0", "4"], ["L", "R"], ["5", "5"], [")", "("], ["T", "er"], ["ro", "p"], ["ar", "s"], ["W", "ar"], ["and", "/"], ["u", "le"], ["-", "of"], ["st", "e"], ["Th", "an"], ["wi", "de"], ["re", "am"], ["S", "am"], ["B", "ri"], ["f", "ri"], ["us", "si"], ["ut", "e"], ["id", ":"], ["p", "op"], ["c", "ul"], ["1", "10"], ["con", "f"], ["im", "pro"], ["re", "co"], ["wh", "e"], ["n", "ess"], ["t", "end"], ["struc", "tions"], ["struc", "tion"], ["-", "cs"], ["W", "inter"], ["cri", "b"], ["sec", "tions"], ["1", "/2"], ["pr", "int"], ["s.", "pdf"], ["tim", "es"], ["Ap", "pro"], ["R", "ob"], ["pro", "pos"], ["Op", "tional"], ["we", "ight"], ["peri", "od"], ["Func", "tions"], ["ann", "ing"], ["H", "igh"], ["pri", "or"], ["ver", "tex"], ["tex", "ts"], ["Monday", ","], ["/index", "."], ["expl", "o"], ["pro", "vid"], ["he", "ad"], ["-", "07"], ["techn", "olog"], ["P", "olicy"], ["p", "ix"], ["N", "LP"], ["w", "ise"], ["(", "2009"], ["im", "ension"], ["Ser", "vice"], ["o", "tograph"], ["inv", "ol"], ["s", "ince"], ["po", "ints"], ["commun", "ic"], ["Inte", "grity"], ["\u0120\u00c2\u0142\u00c2\u0142\u00c2\u0142\u00c2\u0142", "\u00c2\u0142\u00c2\u0142\u0120"], ["Vir", "tual"], ["en", "viron"], ["-", "oriented"], ["Pro", "ceed"], ["ab", "ove"], ["inforce", "ment"], ["MB", ")("], ["and/", "or"], ["-of", "-"], ["reco", "gn"], ["pix", "el"], ["MB)(", "id:"], ["x", "t"], ["n", "y"], ["i", "k"], ["E", "r"], ["G", "e"], ["7", "0"], ["0", "5"], ["H", "o"], [".", "h"], ["v", "s"], ["S", "S"], ["in", ","], ["on", ","], ["er", "-"], ["th", "or"], ["m", "ar"], ["as", "ed"], ["it", "or"], ["e", "ec"], ["F", "ra"], ["(", "for"], ["pro", "f"], ["Th", "at"], ["I", "ma"], ["ment", "s,"], ["ab", "il"], ["c", "ut"], ["B", "ut"], ["O", "ne"], ["ang", ","], ["m", "ess"], ["O", "ther"], ["fic", "ial"], ["class", "es"], ["s", "end"], ["ac", "tive"], ["to", "ber"], ["r", "ast"], ["P", "ub"], ["langu", "ag"], ["ke", "ep"], ["hour", "s:"], ["iz", "ation,"], ["code", ","], ["D", "oc"], ["cl", "ick"], ["w", "ish"], ["over", "view"], ["of", "ten"], ["(", "see"], ["fe", "el"], ["Comput", "ational"], ["ynam", "ics"], ["experi", "ment"], ["Wor", "ld"], ["A", "lex"], ["buil", "ding"], ["Inter", "face"], ["en", "sive"], ["[", "Slides"], ["we", "'ll"], ["Re", "presentation"], ["turn", "ed"], ["(e.g", ".,"], ["ed", "ition"], ["CS10", "6"], ["tal", "k"], ["Pr", "inciples"], ["person", "al"], ["Text", "book"], ["R", "ails"], ["Tech", "n"], ["summ", "ary"], ["D", "atabase"], ["fam", "iliar"], ["Jo", "hn"], ["Teach", "ing"], ["SIG", "GRAPH"], ["t", "xt"], ["[Slides", "]"], ["r", "c"], [".", "#"], ["B", "A"], ["(", "M"], ["8", ")"], ["z", "on"], ["N", "or"], ["or", "es"], ["f", "it"], ["tu", "n"], ["ver", "se"], ["20", ":"], ["In", "for"], ["R", "un"], ["g", "ot"], ["Pro", "b"], ["I", "CS"], ["ma", "tic"], ["comp", "on"], ["W", "el"], ["day", ","], ["fic", "ation"], ["11", "-"], ["c", "ore"], ["ag", "ing"], ["6", "up"], ["Cour", "ses"], ["sh", "ip"], ["algorithm", "s."], ["00", "pm"], ["30", "pm"], ["G", "ame"], ["min", "ist"], ["cri", "be"], ["S", "how"], ["F", "ree"], ["s", "yn"], ["Ad", "d"], ["al", "ong"], ["re", "present"], ["au", "ght"], ["Problem", "s"], ["gi", "ving"], ["reg", "ular"], ["\u00e2\u0122\u013b", "t"], ["lo", "gin"], ["pri", "ate"], ["Sec", "ond"], ["dead", "line"], ["ult", "y"], ["Gener", "ic"], ["us", "field"], ["vari", "ous"], ["discuss", "ed"], ["\u00c2\u0142\u00c2\u0142", "\u00c2\u0142\u00c2\u0142\u0120"], ["ar", "ray"], ["Program", "s"], ["loc", "k"], ["key", "word"], ["Ma", "thema"], ["L", "inu"], ["As", "sist"], ["bu", "gg"], ["W", "indow"], ["pr", "inciples"], ["sch", "edul"], ["Sp", "ecial"], ["Applic", "ations"], ["mat", "rix"], ["wa", "it"], ["encour", "ag"], ["fra", "mework"], ["Can", "vas"], ["it", "tle"], ["fe", "edback"], ["Ru", "by"], ["cat", "alog"], ["Oc", "tober"], ["Pub", "lic"], ["appro", "priate"], ["Linu", "x"], ["s", ")"], ["f", "y"], ["A", "I"], ["5", ")"], ["P", "e"], ["3", ")"], ["(", "S"], ["G", "i"], ["3", "5"], ["-", ">"], ["8", "0"], ["(", "7"], [".", "."], ["R", "L"], ["P", "U"], ["O", "'"], ["g", "an"], ["or", "k"], ["en", "e"], ["m", "en"], ["B", "en"], ["re", "t"], ["l", "ing"], ["h", "al"], ["K", "ar"], ["L", "ic"], ["am", ","], ["o", "ad"], ["c", "are"], ["et", "ch"], ["p", "ur"], ["O", "ur"], ["f", "ect"], ["(", "10"], ["v", "ate"], ["as", "tic"], ["el", "se"], ["u", "me"], ["ver", "age"], ["P", "age"], ["ma", "ph"], ["ha", "el"], ["C", "lo"], ["the", "ore"], ["si", "der"], ["sp", "e"], ["re", "fer"], ["project", "s."], ["project", "."], ["ul", "ations"], ["R", "ust"], ["ech", "an"], ["Programming", "**"], ["F", "ound"], ["11", "/2"], ["bu", "g"], ["tr", "y"], ["Wh", "y"], ["E", "mail"], ["Sch", "em"], ["ex", "act"], ["h", "app"], ["wh", "ile"], ["get", "ting"], ["ag", "ain"], ["ser", "ies"], ["(", "Tue"], ["(3", "),"], ["Col", "ab"], ["way", "s"], ["as", "pect"], ["at", "ors"], ["H", "ash"], ["class", "/cs"], ["(", "Thu"], ["m", "ember"], ["answ", "ers"], ["pr", "erequis"], ["Instructor", ":"], ["con", "sist"], ["github", "."], ["org", "/"], ["abl", "es"], ["pub", "l"], ["session", "."], ["N", "OT"], ["T", "wit"], ["Optim", "ization"], ["Bu", "il"], ["Wi", "th"], ["triang", "le"], ["mathema", "tical"], ["berkeley", ".edu/~"], ["UN", "IX"], ["an", "alyz"], ["Inte", "lligence"], ["empl", "ate"], ["Mal", "ware"], ["se", "tup"], ["th", "ird"], ["ei", "ther"], ["Sup", "port"], [".j", "son"], ["Cop", "y"], ["co", "ordin"], ["sh", "eet"], ["Wel", "come"], ["Rel", "oad"], ["Se", "maph"], ["Mic", "hael"], ["m", "p"], ["s", "a"], ["v", "a"], ["G", "H"], ["%", ")"], ["A", "g"], ["M", "P"], ["b", "en"], ["to", "-"], ["ce", "ll"], ["ri", "d"], ["h", "ad"], ["us", "er"], ["r", "uc"], ["E", "qu"], ["op", "h"], ["ul", "es"], ["tic", "le"], ["u", "sion"], ["ass", "ist"], ["C", "od"], ["1", "),"], ["T", "As"], ["As", "sign"], ["ist", "ory"], ["so", "ci"], ["um", "b"], ["student", "s."], ["t", "able"], ["Ch", "o"], ["15", ":"], ["ext", "ra"], ["S", "ite"], ["C", "li"], ["li", "ve"], ["(", "due"], ["op", "tional"], ["pres", "sion"], ["co", "ding"], ["week", "s"], ["eng", "th"], ["br", "ing"], ["21", "10"], ["Qu", "ick"], ["network", "s"], ["lectures", ","], ["To", "ol"], ["Net", "ID"], ["S", "cal"], ["develop", "ment"], ["Po", "st"], ["tex", "ture"], ["lin", "es"], ["xim", "um"], ["15-", "4"], ["en", "ough"], ["submit", "ted"], ["fac", "es"], ["Model", "s"], ["Ex", "ercis"], ["W", "atch"], ["prob", "ability"], ["Ab", "out"], ["Sim", "ple"], ["ann", "ouncements"], ["p", "ractice"], ["Cre", "ative"], ["Pres", "ent"], ["ext", "ension"], ["Aug", "ust"], ["complex", "ity"], ["sci", "enti"], ["Hour", "s"], ["p", "ower"], ["feat", "ures"], ["activity", "_"], ["B", "inary"], ["fundament", "al"], ["P", "DF"], ["Con", "currency"], ["window", "."], ["a", "vig"], ["Than", "ks"], ["eec", "s."], ["Window", "s"], ["github.", "io"], ["Twit", "ter"], ["(", "A"], ["a", "/"], ["D", "P"], ["7", ","], ["H", "T"], ["8", "6"], ["C", ","], ["G", "a"], ["a", "z"], ["3", "9"], ["H", "w"], ["I", "R"], ["m", "er"], ["es", "p"], ["T", "re"], ["ing", ":"], ["w", "al"], ["ar", "on"], ["b", "ar"], ["to", "o"], ["n", "ec"], ["ic", "tion"], ["ver", "al"], ["T", "ex"], ["O", "ri"], ["le", "ad"], ["d", "ot"], ["p", "ly"], ["S", "ur"], ["f", "ine"], ["H", "el"], ["ke", "ll"], ["201", "8"], ["201", "9"], ["co", "st"], ["in", "ue"], ["e", "arn"], ["rec", "ur"], ["rec", "or"], ["arch", "it"], ["ack", "s"], ["it", "'s"], ["programming", "."], ["A", "pr"], ["CS", "24"], ["bas", "ics"], ["ter", "min"], ["min", "d"], ["2", "13"], ["learning", ","], ["Wed", ","], ["18", "-"], ["Cl", "ick"], ["F", "low"], ["Sec", "tions"], ["ac", "ces"], ["Con", "gr"], ["09", "/2"], ["pr", "ice"], ["hel", "d"], ["d", "istri"], ["II", "I"], ["mis", "s"], ["fa", "ir"], ["09", "/0"], ["Ph", "ase"], ["func", "tion"], ["Thursday", ","], ["dif", "fic"], ["Wor", "king"], ["Rec", "itation"], ["W", "ash"], ["b", "row"], ["ap", "point"], ["start", "ed"], ["s", "ites"], ["current", "ly"], ["out", "put"], ["to", "col"], ["instructor", "s"], ["des", "cription"], ["cont", "inu"], ["lic", "ense"], ["https://", "github"], ["B", "reak"], ["as", "signed"], ["exercis", "es"], ["Mach", "ines"], ["gre", "at"], ["Comm", "ons"], ["Thread", "s"], ["Recur", "sion"], ["Recur", "sive"], ["Prerequisites", ":"], ["N", "atural"], ["ession", "al"], ["Sept", "ember"], ["cour", "tes"], ["pen", "al"], ["Ar", "tificial"], ["H", "unter"], ["zer", "o"], ["Dif", "ferent"], ["Robo", "tics"], ["Activity", ".kt"], ["An", "imation"], ["Ques", "tions"], ["al", "gebra"], ["d", "rop"], ["whe", "ther"], ["Proceed", "ings"], ["Ima", "ge"], ["Doc", "u"], ["Infor", "matics"], ["T", "aught"], ["encourag", "ed"], ["Y", "ork"], ["Lic", "ense"], ["ass", "ume"], ["Cli", "ent"], ["github.io", "/"], ["esp", "ecial"], ["Has", "kell"], ["Congr", "at"], ["Wash", "ington"], ["https://github", ".com/"], ["w", "o"], ["a", "h"], ["9", "."], ["N", "P"], ["C", "r"], ["C", "T"], ["P", "R"], ["C", "-"], ["\"", ")"], ["in", "o"], ["es", "h"], ["D", "ou"], ["re", "-"], ["ing", ")"], ["h", "is"], ["or", "ed"], ["st", "an"], ["v", "ent"], ["ra", "p"], ["ch", "e"], ["n", "am"], ["ex", "ec"], ["M", "ac"], ["ac", "ter"], ["y", "un"], ["R", "et"], ["m", "id"], ["L", "ate"], ["St", "ate"], ["en", "ci"], ["or", "age"], ["ph", "en"], ["par", "ts"], ["end", "ed"], ["N", "um"], ["Ex", "pl"], ["15", "/"], ["problem", "."], ["p", "ip"], ["00", ":"], ["courses", "."], ["Le", "vel"], ["assignment", "s."], ["200", "5"], ["ame", "ter"], ["cs", "ail"], ["Gra", "des"], ["cont", "ri"], ["tical", "ly"], ["16", ":"], ["go", "ing"], ["6.", "0"], ["Re", "port"], ["re", "port"], ["present", "ations"], ["sc", "ore"], ["ally", ","], ["Systems", "**"], ["them", "."], ["cor", "rec"], ["Example", ","], ["C", "IS"], ["ann", "ounce"], ["then", "tic"], ["lo", "cal"], ["Lab", "s"], ["Set", "s"], ["Dec", "ember"], ["in", "put"], ["under", "graduate"], ["inst", "all"], ["add", "ress"], ["Link", "s"], ["self", "-"], ["ad", "ditional"], ["Implement", "ation"], ["st", "atis"], ["Under", "stand"], ["construc", "tion"], ["IS", "EC"], ["call", "ed"], ["Sch", "edul"], ["Ex", "plo"], ["fl", "u"], ["ver", "ified"], ["Pa", "x"], [".mit", ".edu/"], ["Material", "s"], ["you", "'re"], ["rele", "vant"], ["sh", "aring"], ["semb", "ly"], ["emphas", "is"], ["NY", "U"], ["Intern", "ational"], ["d", "omain"], ["inde", "pendent"], ["rele", "ased"], ["mess", "age"], ["of", "ficial"], ["Tool", "s"], ["especial", "ly"], ["RP", "ISEC"], ["a", "i"], ["f", "f"], ["t", ","], ["p", "i"], ["S", "E"], ["H", "E"], ["h", "r"], ["B", "l"], ["S", "c"], ["k", "."], ["T", ")"], ["R", "A"], ["R", "."], [")", ";"], ["A", "f"], ["M", "c"], ["B", "."], ["U", "I"], ["D", "S"], ["S", "&"], ["&", "D"], ["(", "in"], ["J", "on"], ["an", ","], ["d", "en"], ["r", "al"], ["on", "al"], ["is", "on"], ["in", "ed"], ["R", "ed"], ["t", "ar"], ["ment", "s."], ["ed", "ge"], ["us", "es"], ["us", "h"], ["et", "c"], ["s", "qu"], ["we", "l"], ["P", "ap"], ["es", "ome"], ["ver", "tic"], ["St", "and"], ["S", "ci"], ["su", "per"], ["wh", "y"], ["4", "),"], ["2", "),"], ["Re", "al"], ["fi", "g"], ["up", "."], ["par", "se"], ["Uni", "x"], ["ass", "um"], ["Se", "qu"], ["mo", "tion"], ["project", ","], ["(", "15"], ["ard", "ing"], ["v", "olu"], ["m", "ary"], ["20", "00"], ["assignment", "."], ["200", "1"], ["pre", "fer"], ["2", "24"], ["x", "ford"], ["pl", "ace"], ["learning", "."], ["R", "ich"], ["eng", "ine"], ["courses", ".cs."], ["design", "ed"], ["W", "ill"], ["Sec", "tion"], ["CM", "U"], ["Me", "et"], ["20", "25"], ["Func", "tion,"], ["N", "ever"], ["https://", "www"], ["II", "R"], ["comple", "ted"], ["cre", "ate"], ["11", "/0"], ["10", "/0"], ["res", "ult"], ["Vide", "os"], ["comm", "on"], ["tern", "al"], ["al", "tern"], ["section", "-"], ["coun", "ts"], ["expl", "ore"], ["semester", "."], ["pr", "inci"], ["col", "or"], ["inst", "e"], ["techn", "ical"], ["Link", "ed"], ["qu", "ality"], ["CS", "CI"], ["abl", "es,"], ["Note", ":"], ["bri", "d"], ["11:59", "pm"], ["sam", "pl"], ["Develop", "ment"], ["(", "recitation"], ["E", "clip"], [".", "php"], ["C", "OM"], ["Re", "qui"], ["si", "bility"], ["sur", "vey"], ["S", "kip"], ["pret", "ation"], ["http://web", ".stanford.edu/"], ["P", "olicies"], ["individ", "ual"], ["par", "adig"], ["Vis", "ual"], ["vir", "tual"], ["res", "ults"], [".", "xml"], ["In", "stitute"], ["ussi", "an"], ["des", "crib"], ["l", "ittle"], ["G", "PU"], ["aspect", "s"], ["Copy", "right"], ["Semaph", "ore"], ["-", "to-"], ["aw", "esome"], ["(recitation", ")"], ["Eclip", "se"], ["O", "N"], ["F", "o"], ["z", "e"], ["y", "d"], ["4", "3"], ["6", ")"], ["A", "C"], ["C", "A"], ["I", "P"], ["th", "es"], ["re", "en"], ["al", ","], ["as", "ing"], ["de", "e"], ["S", "ol"], ["f", "un"], ["R", "em"], ["D", "ay"], ["ap", "e"], ["The", "y"], ["i", "el"], ["Q", "ue"], ["S", "od"], ["f", "lo"], ["str", "ate"], ["F", "rom"], ["der", "s"], ["for", "um"], ["student", "s,"], ["s", "mo"], ["f", "fer"], ["P", "ack"], ["project", "s,"], ["ac", "com"], ["M", "any"], ["c", "ould"], ["res", "ource"], ["algorithm", "ic"], ["exam", "."], ["f", "ail"], ["For", "k"], ["computer", "-"], ["lecture", "."], ["13", ":"], ["hour", "s."], ["6.", "00"], ["oc", "w"], ["list", "ed"], ["j", "ob"], ["ust", "ering"], ["comput", "ation"], ["Mo", "st"], ["Str", "ing"], ["tiv", "ation"], ["stand", "ard"], ["Ma", "x"], ["u", "ally"], ["ori", "gin"], ["Tuesday", "s"], ["y", "ond"], ["dif", "fer"], ["Ro", "om"], ["includ", "es"], ["B", "row"], ["Stud", "ent"], [".", "md"], ["down", "load"], ["part", "ner"], ["i", "ved"], ["stanford", ".edu"], ["con", "cept"], ["analysis", ","], ["year", "s"], ["0", "6-"], ["qu", "bit"], ["bec", "ome"], ["p", "ath"], ["201", "5/"], ["out", "side"], ["gg", "est"], ["org", "an"], ["and", "rew"], ["bin", "ary"], ["trans", "form"], ["structure", "d"], ["sam", "ple"], ["Applic", "ation"], ["below", "."], ["example", ","], ["contain", "s"], ["reg", "ression"], ["n", "atural"], ["pa", "ir"], ["manage", "ment"], ["atab", "ases"], ["ma", "kes"], ["strong", "ly"], ["e", "valuation"], ["T", "ensor"], ["intro", "duce"], ["Val", "ue"], ["ri", "eval"], ["-", "scale"], ["provid", "ed"], ["other", "wise"], ["object", "-oriented"], ["Techn", "ology"], [".", "txt"], ["G", "usfield"], ["pri", "vate"], ["con", "sider"], ["Found", "ations"], ["ben", "ef"], ["umb", "ia"], [".", "eecs."], ["nec", "ess"], ["se", "veral"], ["A", "&D"], ["wel", "come"], ["inste", "ad"], ["Ret", "rieval"], ["h", "o"], ["r", "."], ["L", "."], ["C", "E"], ["A", ":"], ["A", "m"], ["(", "a"], ["\"", "."], ["i", "."], ["(", "5"], ["(", "n"], ["a", "o"], ["D", "R"], ["in", "i"], ["w", "in"], ["er", ":"], ["k", "er"], ["an", "e"], ["(", "or"], ["C", "or"], ["ti", "z"], ["in", "ing"], ["M", "ed"], ["re", "at"], ["u", "tion"], ["h", "ar"], ["as", "."], ["f", "our"], ["it", "ch"], ["ch", "ar"], ["'", "ve"], ["ve", "x"], ["1", "20"], ["d", "ri"], ["N", "ow"], ["ad", "v"], ["G", "et"], ["s", "uc"], ["op", "e"], ["l", "ap"], ["ne", "ver"], ["10", ","], ["a", "tic"], ["S", "el"], ["ex", "per"], ["oun", "t"], ["at", "es,"], ["Uni", "v"], ["res", "ses"], ["b", "ase"], ["St", "ew"], ["end", "ar"], ["im", "um"], ["S", "um"], ["University", ")"], ["B", "ack"], ["one", "."], ["12", "-"], ["tic", "ip"], ["H", "ard"], ["ber", "t"], ["ra", "ys"], ["19", "8"], ["pre", "p"], ["Al", "so"], ["ou", "ght"], ["Mon", ","], ["i", "ous"], ["par", "ser"], ["has", "h"], ["es", "tim"], ["ance", ","], ["li", "br"], ["ima", "g"], ["post", "ing"], ["present", "ed"], ["mail", "ing"], ["yth", "ing"], ["need", "s"], ["20", "26"], ["dem", "and"], ["Wh", "ile"], ["Comput", "ation"], ["12", "/0"], ["method", "s,"], ["Sp", "ec"], ["at", "ure"], ["S", "olution"], ["Au", "to"], ["Mat", "lab"], ["help", "ful"], ["field", "."], ["or", "row"], ["Jo", "in"], ["Man", "ual"], ["Bo", "ok"], ["fac", "tor"], ["Model", "ing"], ["sh", "ell"], ["fici", "ency"], ["w", "on't"], ["AP", "I"], ["Qu", "antum"], ["w", "atch"], ["sur", "face"], ["hand", "s-"], ["At", "t"], ["CMS", "."], ["P", "ath"], ["re", "main"], ["sim", "ulation"], ["op", "por"], ["com", "bin"], ["de", "pend"], ["techn", "ology"], ["Log", "in"], ["interest", "ed"], ["respon", "sible"], ["respon", "se"], ["ier", "arch"], ["Com", "mit"], ["Com", "ments"], ["long", "er"], ["multi", "-"], ["ili", "bri"], ["M", "AT"], ["AD", "M"], ["lat", "er"], ["un", "til"], ["Det", "ails"], ["yp", "tograph"], ["Lo", "op"], ["S", "ession"], ["pag", "es,"], ["Sch", "ool"], ["m", "aster"], ["hard", "ware"], ["bro", "ok"], ["st", "ony"], ["prog", "ress"], ["(3", "6),"], ["frequ", "ency"], ["@cs.", "cornell.edu"], ["Jun", "e"], ["meas", "ure"], ["ro", "bot"], ["Trans", "actions"], ["Statis", "tical"], ["fri", "end"], ["pop", "ular"], ["impro", "ve"], ["Ho", "ll"], ["ma", "zon"], ["bugg", "ing"], ["Or", "gan"], ["Schem", "e"], ["berkeley.edu/~", "cs"], ["CS24", "6:"], ["courtes", "y"], ["Au", "thentic"], ["Af", "ter"], ["S&", "P"], ["Stand", "ard"], ["Sod", "a"], ["smo", "oth"], ["inst", ".eecs."], ["Stew", "art"], ["hands-", "on"], ["RE", "ADM"], ["stony", "brook"], ["Organ", "ization"], ["inst.eecs.", "berkeley.edu/~cs"], ["l", "a"], ["e", "-"], ["m", ","], ["g", ","], ["i", "-"], ["W", "."], ["E", "R"], ["0", "1"], ["D", "u"], ["0", "2"], ["0", "3"], ["9", ","], ["6", "7"], ["o", ":"], ["/", "O"], ["1", "n"], ["er", "y"], ["J", "er"], ["h", "an"], ["an", "a"], ["A", "re"], ["p", "al"], ["ar", ","], ["L", "ar"], ["st", "er"], ["on", "om"], ["en", "si"], ["g", "ment"], ["ma", "th"], ["ac", "es"], ["you", "t"], ["ar", "ly"], ["s", "ay"], ["ht", "m"], ["con", "n"], ["ud", "d"], ["We", "is"], ["ph", "ere"], ["G", "lo"], ["(", "by"], ["b", "ig"], ["or", "ts"], ["ur", "ther"], ["ra", "ther"], ["able", ","], ["Ch", "all"], ["one", "-"], ["15", "%"], ["mat", "ed"], ["bo", "ard"], ["any", "one"], ["30", ":"], ["st", "ant"], ["Le", "arn"], ["200", "4"], ["14", ","], ["/2", "3"], ["material", ","], ["T", "ree"], ["cover", "ing"], ["cover", "age"], ["Wh", "ere"], ["enc", "y,"], ["comput", "e"], ["ear", "ly"], ["rel", "ation"], ["TA", ","], ["spec", "ial"], ["wh", "ose"], ["Sh", "ort"], ["\u00e2\u0122\u013b", "ll"], ["gin", "ia"], ["g", "ain"], ["Ph", "il"], ["Sp", "ace"], ["fa", "ult"], ["Nov", "."], ["D", "IS"], ["201", "7:"], ["Exam", "ples"], ["Read", "ings"], ["Man", "age"], ["Man", "ip"], ["teach", "es"], ["question", "s."], ["E", "very"], ["Comm", "and"], ["experience", "."], ["Ad", "ditional"], ["Implement", "ation,"], ["run", "ning"], ["30", "pm,"], ["Parallel", "ism"], ["Det", "ection"], ["E", "lectr"], ["sy", "llabus"], ["real", "-"], ["E.", "md"], ["Hour", "s:"], ["Mat", "rix"], ["chang", "es"], ["Sem", "an"], ["direct", "ly"], ["](", "http://"], ["se", "lect"], ["tri", "bution"], ["Carnegie", "-"], ["Test", "ing"], ["Fil", "es"], ["script", "ing"], ["Ke", "y"], ["b", "ody"], ["ap", "plied"], ["cer", "tificate"], ["Mod", "ern"], ["Bayes", "ian"], ["Pass", "phrase"], ["ex", "isting"], ["Java", "Script"], ["conf", "lic"], ["d", "imension"], ["re", "inforcement"], ["abil", "istic"], ["theore", "tical"], ["g", "rid"], ["H", "istory"], ["Ori", "ented"], ["Hel", "p"], ["archit", "ec"], ["Docu", "ment"], ["Congrat", "ulations"], ["T", "wo"], ["M", "esh"], ["enci", "es"], ["Num", "ber"], ["ma", "tically"], ["Explo", "itation"], ["csail", ".mit.edu/"], ["volu", "tional"], ["http://web.stanford.edu/", "class/cs"], ["accom", "mod"], ["equ", "ilibri"], ["Holl", "ister"], ["A", "mazon"], ["Carnegie-", "Mellon"], ["i", "v"], ["B", "r"], ["0", "6"], ["I", "V"], ["N", "O"], ["E", "M"], ["M", "u"], ["(", "K"], ["5", "7"], ["I", "."], ["S", "w"], ["I", "d"], ["Q", "L"], ["on", "."], ["M", "er"], ["C", "er"], ["p", "an"], ["z", "es"], ["R", "en"], ["re", "h"], ["or", "ing"], ["c", "ar"], ["B", "ar"], ["l", "and"], ["(", "le"], ["m", "ic"], ["on", "ic"], ["T", "om"], ["ch", "o"], ["ve", "m"], ["g", "am"], ["D", "ri"], ["J", "ac"], ["res", "er"], ["P", "ur"], ["C", "ut"], ["ro", "id"], ["10", "8"], ["10", "."], ["c", "ate"], ["el", "ine"], ["j", "ud"], ["3", "),"], ["8", "),"], ["ang", "le"], ["r", "ang"], ["sh", "are"], ["ph", "er"], ["str", "u"], ["di", "x"], ["at", "ory"], ["Ch", "en"], ["mat", "ter"], ["00", "0"], ["ec", "tive"], ["De", "ad"], ["http://", "cs"], ["if", "y"], ["ph", "ys"], ["14", "/"], ["(", "14"], ["14", "-"], ["pre", "-"], ["inter", "pre"], ["me", "ans"], ["24", ":"], ["24", "-"], ["ed", "ia"], ["System", ":"], ["C", "red"], ["9", "/2"], ["material", "."], ["Assignment", "-"], ["st", "ep"], ["homework", ","], ["Mon", "te"], ["En", "d"], ["con", "ven"], ["plic", "it"], ["18", ":"], ["all", "oc"], ["rec", "urr"], ["qu", "ick"], ["ish", "ing"], ["page", "."], ["os", "ed"], ["enti", "re"], ["language", ","], ["model", "ing"], ["model", "s,"], ["Homework", "s"], ["can", "'t"], ["re", "ally"], ["re", "lease"], ["ind", "ic"], ["read", "ings"], ["spec", "tive"], ["cl", "ose"], ["app", "ear"], ["tri", "al"], [".edu/~", "s"], ["Graph", "ical"], ["sk", "y"], ["j", "ure"], ["Java", ","], ["learn", "ers"], ["PM", "."], ["PM", ","], ["Code", ","], ["ability", ","], ["discussion", "s"], ["40", ":"], ["Lab", "or"], ["ific", "ation"], ["develop", "ed"], ["comm", "and"], ["exam", "ples"], ["Al", "tern"], ["pp", "ing"], ["start", "ing"], ["Hall", ","], ["Video", "s:"], ["ul", "ner"], ["typ", "es"], ["as", "cript"], ["ex", "cept"], ["Cont", "inu"], ["Car", "lo"], ["pass", "word"], ["h", "old"], ["G", "old"], ["py", "lex"], ["c", "enter"], ["recommend", "ed"], ["He", "ap"], ["multi", "ple"], ["EN", "GR"], ["let", "ter"], ["dec", "ision"], ["dis", "play"], ["exercis", "e"], ["A", "ward"], ["D", "OT"], ["af", "ety"], ["Compil", "ers"], ["Control", ","], ["k", "ernel"], ["(4", "),"], ["Wr", "iting"], ["in-", "class"], ["some", "thing"], ["con", "stra"], ["task", "s"], ["Te", "am"], ["Hand", "out"], ["application", "s."], ["V", "oice"], ["Chris", "to"], ["ge", "omet"], ["al", "though"], ["Pat", "tern"], ["jec", "tive"], ["T", "ake"], ["ac", "ross"], ["direc", "tion"], ["Syn", "chron"], ["Register", ":"], ["Abstrac", "tions"], ["electr", "ical"], ["cal", "cul"], ["in", "structions"], ["Appro", "xim"], ["Rob", "ot"], ["(2009", "-"], ["otograph", "y"], ["ci", "rc"], ["T", "BA"], ["compon", "ent"], ["Ad", "minist"], ["Assist", "ant"], ["hal", "f"], ["publ", "ished"], ["GH", "C"], ["ex", "pression"], ["Str", "ength"], ["ma", "ximum"], ["HT", "ML"], ["recur", "sion"], ["Ste", "phen"], ["Schedul", "ing"], ["reg", "arding"], ["Never", ":"], ["paradig", "m"], ["benef", "it"], ["Ro", "bert"], ["oppor", "tun"], ["I", "/O"], ["At", "tribution"], ["(le", "vi"], ["No", "vem"], ["Jac", "ob"], ["Clo", "jure"], ["Voice", ":"], ["(2009-", "06-"], ["Strength", "s:"], ["opportun", "ity"], ["Novem", "ber"], ["p", "s"], ["h", "y"], ["s", "l"], ["i", "b"], ["g", "y"], ["6", "5"], ["-", "1"], ["C", ":"], ["8", "/"], ["!", ")"], ["#", "1"], ["E", "l"], ["E", "T"], ["a", "."], ["0", "-"], ["\u00c2", "\u00b7"], ["(", "C"], ["(", "L"], ["3", "2"], ["5", "8"], ["a", ":"], ["A", "-"], ["G", "."], ["G", "D"], ["(", "U"], ["D", "O"], ["L", "A"], ["(", "9"], ["p", "th"], ["or", ","], ["n", "es"], ["ti", "-"], ["en", "a"], ["S", "ing"], ["W", "al"], ["p", "at"], ["B", "ro"], ["f", "ar"], ["ar", ":"], ["as", ","], ["r", "as"], ["F", "our"], ["I", "ll"], ["ll", "ing"], ["ch", "ing"], ["ch", "es"], ["si", "tion"], ["er", "s."], ["en", "ge"], ["v", "ac"], ["ot", "e"], ["ent", "ly"], ["y", "et"], ["k", "et"], ["l", "ay"], ["course", "-"], ["work", "."], ["ate", "ly"], ["D", "ate"], ["im", "in"], ["vi", "ol"], ["R", "edu"], ["sign", "al"], ["th", "me"], ["em", "per"], ["i", "ble"], ["lo", "op"], ["ad", "di"], ["ti", "es,"], ["par", "ti"], ["An", "y"], ["en", "ses"], ["R", "ig"], ["ge", "ther"], ["in", "form"], ["form", "al"], ["Con", "s"], ["C", "ase"], ["al", "ign"], ["http://", "comp"], ["p", "ack"], ["er", "'s"], ["/", "15"], ["com", "es"], ["F", "rac"], ["De", "fin"], ["An", "other"], ["200", "6"], ["14", "."], ["own", "."], ["10", "pm"], ["19", "3"], ["pre", "d"], ["book", "."], ["20", "24"], ["week", "."], ["In", "tr"], ["ser", "ver"], ["U", "ser"], ["K", "now"], ["man", ","], ["2", "1:"], ["low", "er"], ["post", "ed."], ["Algorithm", "ic"], ["Science", ","], ["Ma", "in"], ["ten", "sion"], ["25", "%"], ["set", "s,"], ["Fri", ","], ["k", "ind"], ["was", "h"], ["Y", "ann"], ["Python", "."], ["b", "its"], ["Sh", "are"], ["\u00e2\u0122\u013b", "ve"], ["like", "ly"], ["func", "tions"], ["l", "ens"], ["T", "ran"], ["process", "or"], ["V", "ern"], ["gener", "ally"], ["ad", "ded"], ["g", "row"], ["ex", "cep"], ["G", "ames"], ["10/", "2014"], ["Sy", "m"], ["run", "s"], ["Due", ":"], ["fil", "ter"], ["Go", "od"], ["focus", "ed"], ["you", "'ll"], ["re", "turn"], ["ess", "ential"], ["Rec", "ommend"], ["4.", "0"], ["Rec", "ord"], ["E", "ric"], ["**CS", "CI"], ["Con", "cepts"], ["offer", "ing"], ["And", "rew"], ["Sub", "mission"], ["Pl", "ay"], ["bri", "ef"], ["Ex", "trac"], ["g", "ment."], ["wit", "ch"], ["cmu", ".edu/~"], ["commun", "ity"], ["particular", "ly"], ["chang", "ed"], ["inte", "grity"], ["document", "ation"], ["meet", "ing"], ["d", "atabase"], ["normal", "s"], ["qu", "arter"], ["bro", "ad"], ["ar", "tificial"], ["@cornell.edu", ")"], ["Sh", "ared"], ["dis", "crete"], ["av", "oid"], ["programm", "ers"], ["E", "dition"], ["num", "bers"], ["ch", "oice"], ["det", "ection"], ["posi", "um"], ["di", "git"], ["Upd", "ate"], ["cont", "'d"], ["particip", "ation"], ["st", "ream"], ["Pl", "anning"], ["ny", "u"], ["mon", "itor"], ["f", "rast"], ["D", "ynamics"], ["classi", "fication"], ["prerequis", "ite"], ["Buil", "ding"], ["ruc", "ture"], ["Exercis", "es"], ["n", "avig"], ["Thanks", "giving"], ["de", "termin"], ["Prof", "essional"], ["ar", "ison"], ["Cam", "brid"], ["Bo", "yd"], ["sc", "reen"], ["Dan", "iel"], ["computer-", "science"], ["origin", "al"], ["su", "ggest"], ["necess", "ary"], ["adv", "ance"], ["exper", "t"], ["Par", "ticip"], ["Att", "acks"], ["Lar", "ge"], ["/index.", "htm"], ["s", "phere"], ["f", "urther"], ["READM", "E.md"], ["Cer", "tificate"], ["And", "roid"], ["(levi", "_"], ["Redu", "ce"], ["thme", "tic"], ["Rig", "id"], ["wash", "ington"], ["Cambrid", "ge"], ["p", "."], ["T", "."], ["P", "."], ["a", "x"], ["g", "a"], ["9", ")"], ["F", "F"], ["(", "6"], ["D", "N"], ["8", ","], ["E", "m"], ["k", "-"], ["0", "."], ["I", "A"], ["7", ")"], ["(", "N"], ["C", "y"], ["p", "-"], ["A", "E"], ["N", "."], ["G", "N"], ["K", "."], ["b", "an"], ["P", "an"], ["ti", "d"], ["g", "en"], ["D", "en"], ["g", "ing"], ["k", "ed"], ["F", "ed"], ["G", "ro"], ["ar", "ti"], ["le", "g"], ["c", "as"], ["ic", "t"], ["c", "se"], ["Th", "om"], ["L", "ex"], ["ma", "c"], ["be", "ing"], ["ic", "s,"], ["P", "ol"], ["m", "il"], ["ac", "ed"], ["are", "l"], ["you", "."], ["In", "st"], ["un", "g"], ["un", "y"], ["K", "ot"], ["B", "ot"], ["C", "ur"], ["we", "is"], ["K", "ine"], ["con", "c"], ["im", "p"], ["u", "el"], ["su", "f"], ["su", "m"], ["day", "."], ["Re", "f"], ["ass", "ess"], ["up", "s"], ["se", "par"], ["ge", "ts"], ["form", "s"], ["form", "er"], ["in", "sp"], ["ta", "x"], ["mo", "ve"], ["bo", "x"], ["Ch", "ang"], ["H", "ack"], ["com", "for"], ["N", "ext"], ["P", "ers"], ["de", "fin"], ["T", "rac"], ["ip", "s"], ["er", "ing,"], ["pl", "es."], ["ap", "pre"], ["book", "s"], ["se", "min"], ["4", "/2"], ["lecture", ","], ["week", "ly"], ["F", "requ"], ["code", "."], ["design", "ing"], ["ting", "-"], ["Wh", "ich"], ["Ac", "cess"], ["(", "18"], ["r", "ick"], ["Ma", "th"], ["set", "ting"], ["20", "23"], ["TA", "s:"], ["Class", "es"], ["(", "3."], ["ent", "ative"], ["Un", "it"], ["Ph", "D"], ["cor", "ding"], ["n", "er,"], ["network", "s,"], ["lectures", "."], ["Thursday", "s"], ["Con", "ference"], ["ask", "ed"], ["most", "ly"], ["Gener", "ation"], ["Algorithms", "**"], ["Dec", "."], ["p", "y."], ["test", "ing"], ["/cs", "ci"], ["techni", "qu"], ["(", "Due"], ["Con", "current"], ["Lec", "tur"], ["expl", "ain"], ["CS50", "'s"], ["Security", "**"], ["comput", "ation."], ["focus", "es"], ["inter", "face"], ["e", "valu"], ["valu", "es"], ["St", "even"], ["staff", "@"], ["6-", "8"], ["D", "on't"], ["func", "tions,"], ["loc", "ation"], ["Comm", "on"], ["CS", "46"], ["y", "\\)"], ["Ser", "ver"], ["et", "ric"], ["Computing", "**"], ["List", ","], ["gi", "ves"], ["main", "tain"], ["New", "s"], ["Trans", "l"], ["Implement", "ing"], ["por", "ts"], ["flow", ","], ["vision", ","], ["Min", "ing"], ["plan", "e"], ["Sub", "mit"], ["Under", "graduate"], ["to", "tal"], ["31", "10"], ["re", "construc"], ["go", "ogle"], ["Mark", "down"], ["AD", "T"], ["plo", "ad"], ["plo", "y"], ["team", "s"], ["Per", "formance"], ["u", "til"], ["compil", "er"], ["game", "."], ["vari", "ety"], ["Tech", "ni"], ["3", "60"], ["Cl", "oud"], ["Zh", "eng"], ["Clas", "si"], ["li", "brary"], ["jo", "in"], ["jo", "y"], ["P", "ower"], ["Sem", "in"], ["pag", "es."], ["tre", "es,"], ["st", "arter"], ["sch", "ool"], ["so", "cial"], ["Se", "lect"], ["unter", ".c"], ["eas", "ier"], ["aud", "it"], ["E", "valuation"], ["B", "ody"], ["Ap", "plied"], ["triang", "les"], ["sequ", "ence"], ["enroll", "ed"], ["mod", "ule"], ["Ex", "tend"], ["recogn", "ition"], ["Ge", "omet"], ["sci", ".h"], ["au", "thor"], ["languag", "es,"], ["Interface", ","], ["s", "cribe"], ["Mathema", "tical"], ["ti", "fy"], ["f", "etch"], ["echan", "ism"], ["al", "ways"], ["T", "emplate"], ["mp", "to"], ["sa", "id"], ["ex", "cell"], ["Cod", "ing"], ["cont", "inue"], ["distri", "bution"], ["appoint", "ment"], ["Dou", "g"], ["St", "orage"], ["sp", "15/"], ["https://", "courses."], ["par", "ameter"], ["IC", "RA"], ["G", "UI"], ["Pap", "er"], ["Rich", "ard"], ["https://www", "."], ["ex", "ternal"], ["ac", "counts"], ["Inter", "pretation"], ["thes", "is"], ["Que", "ue"], ["be", "yond"], ["Con", "vex"], ["Get", "ting"], ["Commit", "s"], ["Authentic", "ation"], ["stonybrook", ".edu"], ["Electr", "ical"], ["conflic", "t"], ["S", "QL"], ["interpre", "ter"], ["Ph", "otography"], ["el", "imin"], ["Ex", "tension"], ["s", "witch"], ["Sym", "posium"], ["frast", "ructure"], ["GN", "U"], ["ne", "tid"], ["uny", ".edu/~s"], ["weis", "s/"], ["conc", "ern"], ["appre", "ci"], ["Techni", "ques"], ["http://comp", "sci.h"], ["unter.c", "uny.edu/~s"], ["http://compsci.h", "unter.cuny.edu/~s"], ["http://compsci.hunter.cuny.edu/~s", "weiss/"], ["t", "."], ["I", "'"], ["k", "n"], ["/", "6"], ["E", ":"], ["F", "i"], ["O", "C"], ["f", "-"], ["I", "M"], ["(", "O"], ["M", "W"], ["3", "6"], ["]", "#"], ["U", "V"], ["F", ","], [".", "_"], ["in", "."], ["d", "on"], ["y", "an"], ["K", "en"], ["b", "re"], ["n", "al"], ["B", "al"], ["is", "."], ["the", "-"], ["ed", "-"], ["L", "at"], ["r", "ar"], ["ar", "es"], ["le", "an"], ["it", "al"], ["B", "it"], ["of", "t"], ["de", "g"], ["I", "de"], ["ex", "c"], ["20", "3"], ["ri", "g"], ["il", "d"], ["F", "ac"], ["W", "are"], ["ly", "ing"], ["em", "s"], ["or", "em"], ["uc", "k"], ["ect", "."], ["cl", "o"], ["wor", "th"], ["course", ")"], ["ap", "s"], ["J", "ul"], ["con", "s"], ["\u00e2\u0122", "\u00a6"], ["re", "po"], ["\\", "),"], ["lo", "om"], ["di", "ve"], ["di", "ent"], ["st", "ore"], ["E", "duc"], ["con", "duc"], ["per", "form"], ["end", "s"], ["student", ","], ["arch", "y"], ["In", "troduc"], ["one", ","], ["12", "2"], ["com", "ment"], ["do", "or"], ["n", "ers"], ["problem", "s,"], ["ornell", ".edu/"], ["wh", "ite"], ["4", "30"], ["Le", "C"], ["f", "ast"], ["F", "ast"], ["read", "me"], ["ide", "a"], ["ul", "ated"], ["algorithm", "."], ["19", "-"], ["M", "art"], ["exam", ","], ["(", "no"], ["S", "ame"], ["B", "ound"], ["ari", "es,"], ["computer", "s"], ["time", ","], ["time", ")"], ["bu", "tions"], ["Co", "ver"], ["ni", "ght"], ["r", "ich"], ["data", "-"], ["data", "."], ["homework", "."], ["In", "ser"], ["ch", "ance"], ["man", "ip"], ["p", "ick"], ["You", "Tu"], ["Tu", "es."], ["S", "ong"], ["l", "ish"], ["need", "ed"], ["ad", "vis"], ["Str", "ate"], ["Ac", "ces"], ["a", "king"], ["d", "ates"], ["is", "tics"], ["Th", "rough"], ["Li", "br"], ["Re", "lease"], ["All", "oc"], ["17", ":"], ["(", "17"], ["tri", "but"], ["Ph", "ys"], ["sk", "ip"], ["(", "Fall"], ["new", "s"], ["PM", ")"], ["Example", ":"], ["On", "ce"], ["Col", "or"], ["28", ","], ["Oct", "."], ["_", "Gener"], ["Res", "ource"], ["Ar", "gu"], ["con", "cep"], ["n", "ames"], ["22", "2"], ["Gra", "duate"], ["Monday", "s"], ["lin", "der"], ["con", "current"], ["list", "ed,"], ["Tim", "es"], ["appro", "ved"], ["Pro", "vid"], ["semester", ","], ["aw", "ard"], ["year", "'s"], ["We", "'ll"], ["You", "'ll"], ["Reg", "ular"], ["6.8", "28"], ["Re", "turn"], ["Cont", "ent"], ["Instructor", "s"], ["full", "y"], ["arch", "ive"], ["Typ", "e"], ["rec", "ord"], ["Lectures", ":"], ["i", "ties"], [",", "\u00e2\u0122\u013f"], ["b", "log"], ["log", "ic"], ["E", "mb"], ["Bas", "ed"], ["look", "ing"], ["Cre", "ating"], ["no", "ise"], ["topic", "s:"], ["detail", "s."], ["-", "engineering"], ["Method", "ology"], ["IEEE", ")"], ["0", "5-"], ["0", "4-"], ["Log", "ic"], ["Pl", "ace"], ["trans", "l"], ["Pro", "c."], ["Stack", ","], ["ki", "w"], ["Mark", "ov"], ["F", "undament"], ["for", "ward"], ["Multi", "-"], ["med", "i"], ["H", "uman"], ["cmu", ".edu/"], ["R", "andom"], ["fer", "ences"], ["Wr", "ite"], ["(", "\u00c2\u00a9"], [".mit", ".edu/courses/"], ["fam", "ily"], ["er", "cial"], ["J", "eff"], ["ingest", "ed."], ["ingest", "ed"], ["fact", ","], ["An", "alyz"], ["inte", "lligence"], ["Te", "X"], ["dat", "as"], ["Fil", "ter"], ["(", "5),"], ["fundament", "als"], ["CS", "54"], ["Dis", "crete"], ["Su", "per"], ["Fu", "ture"], ["Fl", "u"], ["Ver", "sion"], ["uni", "versity"], ["handout", "s"], ["jec", "tives"], ["posi", "tion"], ["proper", "ties"], ["cl", "aim"], ["Upd", "ated"], ["ser", "vices"], ["Hu", "ang"], ["_", "Source"], ["US", "EN"], ["r", "ule"], ["St", "ream"], ["correct", "ness"], ["In", "structions"], ["solution", "s.pdf"], ["propos", "al"], ["texts", ")"], ["explo", "it"], ["ph", "otograph"], ["R", "SS"], ["Fra", "mework"], ["cont", "rast"], ["languag", "es."], ["d", "ynamics"], ["fac", "ulty"], ["\u0120\u00c2\u0142\u00c2\u0142\u00c2\u0142\u00c2\u0142", "\u00c2\u0142\u00c2\u0142\u00c2\u0142\u00c2\u0142\u0120"], ["keyword", "s"], ["Mathema", "tics"], ["catalog", ";"], ["Gi", "thub"], ["sc", "ene"], ["a", "verage"], ["happ", "en"], ["catalog", ".json"], ["Cho", "ose"], ["(", "live"], ["Present", "ation"], ["scienti", "fic"], ["lead", "s"], ["recor", "ded"], ["acces", "sible"], ["pro", "tocol"], ["Understand", "ing"], ["pri", "mary"], ["describ", "ed"], ["awesome", "-"], ["dee", "per"], ["Col", "umbia"], ["ane", "ous"], ["or", "tiz"], ["Med", "ian"], ["th", "ought"], ["H", "ierarch"], ["cr", "yptograph"], ["23", "1n"], ["La", "yout"], ["Glo", "bal"], ["coverage", ".json"], ["relation", "ship"], ["Phil", "os"], ["real-", "world"], ["Seman", "tics"], ["Prob", "abilistic"], ["architec", "tures"], ["frequ", "encies"], ["Ren", "es"], ["comp", "reh"], ["Pur", "pose"], ["eff", "ective"], ["kip", "edia"], ["Handout", "s"], ["Synchron", "ization"], ["Ill", "ino"], ["vac", "y"], ["K", "emper"], ["to", "gether"], ["Extrac", "tive"], ["jud", "gment."], ["Comp", "arison"], ["-and-", "computer-science"], ["Thom", "as"], ["mil", "est"], ["former", "ly"], ["Semin", "ar:"], ["fetch", "ed"], ["y", "mpto"], ["excell", "ent"], ["deg", "ree"], [".c", "ornell.edu/"], ["LeC", "un"], ["YouTu", "be"], ["_Gener", "ated"], ["electrical", "-engineering"], ["Fed", "kiw"], ["ocw", ".mit.edu/courses/"], ["_Source", ":"], ["USEN", "IX"], ["awesome-", "courses"], ["coverage.json", "._"], ["Renes", "as"], ["judgment.", "_"], ["-and-computer-science", "/"], ["ocw.mit.edu/courses/", "electrical-engineering"], ["ocw.mit.edu/courses/electrical-engineering", "-and-computer-science/"], ["h", "u"], ["w", "n"], ["l", "."], ["n", "l"], ["r", "d"], ["z", "z"], ["9", "-"], ["R", "a"], ["O", "P"], ["R", "S"], ["-", "N"], ["o", "h"], ["S", "L"], ["Z", "o"], ["S", "m"], ["w", "("], ["C", "V"], ["2", "D"], ["E", "P"], ["C", "/"], ["D", "A"], ["z", ","], ["H", "P"], ["!", "!"], ["i", ">"], ["v", "in"], ["w", "on"], ["er", "t"], ["th", ","], ["e", "th"], ["R", "an"], ["an", "o"], ["e", "ti"], ["ti", "o"], ["l", "en"], ["c", "ing"], ["H", "is"], ["at", "er"], ["D", "at"], ["k", "ar"], ["p", "and"], ["and", "er"], ["st", "on"], ["d", "ra"], ["u", "ll"], ["de", "f"], ["I", "ter"], ["pro", "c"], ["wi", "d"], ["20", "-"], ["be", "h"], ["tu", "be"], ["u", "s."], ["G", "ri"], ["R", "ad"], ["p", "us"], ["In", "t"], ["un", "it"], ["B", "et"], ["a", "uc"], ["th", "ur"], ["cl", "es"], ["qu", "er"], ["m", "ut"], ["id", "ent"], ["course", "_"], ["m", "ul"], ["E", "ul"], ["with", "in"], ["work", ","], ["10", "%"], ["pl", "at"], ["K", "im"], ["St", "at"], ["A", "ud"], ["as", "sign"], ["7", "),"], ["op", "tions"], ["Re", "le"], ["sh", "op"], ["i", "ence"], ["g", "est"], ["F", "lo"], ["i", "fi"], ["11", ","], ["re", "duc"], ["ag", "s"], ["S", "can"], ["not", "es,"], ["i", "es,"], ["D", "ig"], ["om", "ial"], ["iz", "es"], ["sp", "r"], ["rec", "ap"], ["end", "ing"], ["de", "mo"], ["ro", "bo"], ["Ch", "am"], ["Ch", "."], ["st", "ack"], ["t", "one"], ["z", "one"], ["11", "12"], ["do", "ing"], ["it", "ations"], ["Course", "work"], ["re", "li"], ["ir", "an"], ["comp", "any"], ["De", "f"], ["v", "es."], ["ti", "es."], ["assignment", ","], ["200", "8"], ["s", "ys"], ["em", "pt"], ["19", ":"], ["pre", "par"], ["book", ","], ["24", ","], ["cri", "min"], ["g", "ments"], ["System", "s:"], ["P", "red"], ["s", "ound"], ["er", "ical"], ["pres", "s"], ["2", "/2"], ["Th", "ink"], ["2014", ","], ["16", "/"], ["16", "1"], ["F", "ace"], ["p", "ace"], ["13", ")"], ["data", ","], ["tr", "ue"], ["Ad", "am"], ["yp", "to"], ["(", "pdf"], ["18", "."], ["gra", "du"], ["T", "ick"], ["list", ":"], ["ill", "ion"], ["ma", "king"], ["Con", "text"], ["over", "all"], ["Li", "u"], ["Thur", "s."], ["/", "courses/"], ["here", "."], ["23", "50"], ["ha", "ving"], ["reg", "ist"], ["program", "s."], ["p", "iazza"], ["rel", "ative"], ["cre", "ating"], ["re", "tri"], ["Ph", "."], ["Tuesday", ","], ["ran", "k"], ["two", "-"], [".c", "mu"], ["al", "most"], ["r", "ors"], ["version", ")"], ["40", "%"], ["ed", "ded"], ["ific", "ant"], ["develop", "ing"], ["gu", "est"], ["ar", "gu"], ["online", "."], ["tific", "ations"], ["tific", "ation"], ["http://www.cs.cornell", ".edu/"], ["include", ":"], ["as", "tern"], ["b", "right"], ["+", "my"], ["ob", "tain"], ["vari", "ant"], ["45", "1"], ["paper", "."], ["Bo", "th"], ["Cam", "er"], ["15-", "7"], ["as", "sive"], ["E", "valu"], ["only", "."], ["B", "ell"], ["ell", "ar"], ["ul", "ator"], ["Func", "tions,"], ["on-", "line"], ["B", "loc"], ["Comm", "un"], ["Ch", "eck"], ["cop", "e"], ["ili", "ties"], ["0", "3-"], ["Ex", "tra"], [".", "py"], ["Sim", "ulation"], ["tra", "ditional"], ["Cre", "ate"], ["offer", "ed"], ["class", "room"], ["Pres", "ented"], ["00", "pm,"], ["Re", "pository"], ["un", "less"], ["respon", "ding"], ["UN", "Y"], ["trac", "k"], ["wi", "ki"], ["develop", "ment."], ["Loc", "ation"], ["ev", "in"], ["k", "ov"], ["St", "yle"], ["gre", "es"], ["MB", "E"], ["Sim", "ilar"], ["Compil", "er"], ["Co", "llabor"], ["S", "CP"], ["fin", "ished"], ["Optim", "al"], ["Lo", "ok"], ["Zh", "ang"], ["per", "cent"], ["allow", "s"], ["Reg", "ression"], ["Se", "lection"], ["(", "Guest"], ["any", "thing"], ["direct", "ory"], ["08", "/2"], ["eff", "ect"], ["encour", "age"], ["2017", "/"], ["pa", "ign"], ["P", "enn"], ["feat", "ure"], ["ach", "ie"], ["attend", "ance"], ["Us", "ed"], ["Us", "ers"], ["ad", "vant"], ["register", "ed"], ["v", "oid"], ["(", "6),"], ["approxim", "ation"], ["semb", "ly,"], ["collabor", "ation"], ["Di", "rec"], ["ender", "ing"], ["pro", "duce"], ["p", "olicies"], ["did", "n't"], ["Ser", "vices"], ["pass", "phrase"], ["ce", "ler"], ["Script", "ing"], ["Ter", "ms"], ["explo", "itation"], ["-07", "-"], ["D", "imension"], ["environ", "ment"], ["Re", "inforcement"], ["MB)(id:", "18"], ["Er", "ror"], ["pri", "mar"], ["prof", "essor"], ["W", "ang,"], ["Textbook", ":"], ["fit", "ting"], ["syn", "chron"], ["\u0120", "\u00c2\u0142\u00c2\u0142\u00c2\u0142\u00c2\u0142\u0120"], ["men", "u"], ["per", "fect"], ["spe", "ak"], ["Hash", "ing"], ["Equ", "ations"], ["Ar", "ticle"], ["Present", "ations"], ["scienti", "st"], ["fair", "ly"], ["brow", "ser"], ["NP", "-"], ["che", "ating"], ["contri", "but"], ["Pax", "son,"], ["as", "sembly"], ["HE", "LP"], ["tar", "get"], ["vertic", "es"], ["Sci", "enti"], ["Sequ", "ential"], ["http://", "courses.cs."], ["incre", "asing"], ["Rem", "ember"], ["flo", "or"], ["Bu", "ffer"], ["individ", "ually"], ["D", "atabases"], ["H", "DR"], ["char", "acter"], ["suc", "cess"], ["am", "ount"], ["min", "imum"], ["prep", "are"], ["De", "bugging"], ["Qu", "ery"], ["auto", "mated"], ["con", "stant"], ["Vir", "ginia"], ["Con", "volutional"], ["Id", "enti"], ["cl", "osed"], ["Jav", "ascript"], ["de", "pth"], ["Intr", "usion"], ["-", "Share"], ["Recommend", "ed"], ["http://www.cs.", "cmu.edu/~"], ["navig", "ation"], ["washington", ".edu/courses/"], ["Kot", "lin"], ["Bot", "net"], ["setting", "s"], ["u", "pload"], ["en", "joy"], ["cal", "netid"], ["I'", "m"], ["Open", "Course"], ["the", "orem"], ["cy", "linder"], ["Analyz", "ing"], ["La", "TeX"], ["Flu", "id"], ["(", "formerly"], ["coverage.json._", "#"], ["w(", "T)"], ["C/", "C++"], ["i>", "click"], ["beh", "ind"], ["(pdf", ")"], ["Tick", "et"], ["retri", "eval"], ["Ph.", "D."], ["SCP", "D"], ["passphrase", "."], ["(2009", "-07-"], ["primar", "ily"], ["http://courses.cs.", "washington.edu/courses/"], ["+my", "calnetid"], ["OpenCourse", "Ware"], ["http://courses.cs.washington.edu/courses/", "cse"], ["s", "s"], ["r", "s"], ["\u00e2", "\u0128"], ["l", ","], ["E", "S"], ["h", "i"], ["y", "-"], ["u", "g"], ["/", "c"], ["W", "E"], ["(", "D"], ["s", "\""], ["x", ","], ["t", "_"], ["B", "a"], ["A", "L"], ["C", "C"], ["9", "7"], ["y", "a"], ["6", "/"], ["#", "2"], ["A", "N"], ["U", "r"], ["9", "9"], ["(", "8"], ["M", "y"], ["Y", "u"], ["6", "9"], ["P", "C"], ["5", "2"], ["S", ","], ["s", ";"], ["V", "R"], ["P", "y"], ["G", "L"], ["A", "1"], ["N", "V"], ["N", "N"], ["H", "."], ["U", "."], ["S", "an"], ["m", "or"], ["M", "en"], ["re", "y"], ["p", "ing"], ["is", ":"], ["ed", "i"], ["ed", "y"], ["ed", "X"], ["B", "and"], ["le", "."], ["le", ","], ["i", "as"], ["o", "to"], ["p", "ic"], ["ra", "d"], ["ll", "ed"], ["z", "ation"], ["S", "ter"], ["pro", "m"], ["e", "ve"], ["ment", "al"], ["20", ","], ["ri", "k"], ["ro", "ad"], ["you", ","], ["C", "us"], ["In", "de"], ["P", "ot"], ["ot", "t"], ["M", "em"], ["em", "er"], ["st", "ay"], ["R", "ay"], ["E", "CS"], ["(", "CS"], ["a", "ut"], ["op", "tion"], ["ap", "ed"], ["M", "ul"], ["10", "9"], ["r", "ate"], ["S", "pl"], ["im", "al"], ["comp", "an"], ["el", "i"], ["su", "g"], ["su", "it"], ["ci", "r"], ["(", "not"], ["ori", "es"], ["ex", "ist"], ["this", ","], ["ok", "u"], ["Y", "ang"], ["con", "tro"], ["S", "ha"], ["2", "11"], ["(", "11"], ["re", "ach"], ["c", "ach"], ["oun", "ge"], ["ag", "er"], ["L", "ag"], ["r", "up"], ["u", "es,"], ["pl", "es,"], ["Y", "es,"], ["B", "ase"], ["um", ","], ["University", ","], ["T", "able"], ["do", "c"], ["f", "rac"], ["ra", "tive"], ["duc", "tive"], ["Course", "/"], ["li", "de"], ["be", "li"], ["li", "er"], ["(", "30"], ["30", ","], ["Cour", "ant"], ["cs", "ci"], ["i", "es."], ["200", "2"], ["p", "pt"], ["due", "."], ["3", "19"], ["min", "-"], ["D", "ia"], ["some", "one"], ["S", "ound"], [".", "net"], ["3", "/2"], ["ding", "s"], ["val", "id"], ["16", ","], ["di", "vide"], ["13", "-"], ["enc", "es,"], ["si", "ght"], ["ul", "ation,"], ["plic", "ation"], ["ul", "ting"], ["Data", ","], ["Wh", "e"], ["list", "s."], ["ra", "y,"], ["fin", "ish"], ["term", "s"], ["ques", "tion,"], ["pos", "ed"], ["vis", "it"], ["v", "ed."], ["an", "ces"], ["gn", "os"], ["g", "ates"], ["st", "ates"], ["Ex", "peri"], ["09", "-"], ["p", "ython"], ["set", "s."], ["tu", "ally"], ["ec", "urity"], ["21", "."], ["26", "-"], ["TA", ":"], ["graph", "ic"], ["ann", "oun"], ["ann", "ing,"], ["Python", ","], ["H", "app"], ["li", "fe"], ["mo", "b"], ["p", "olic"], ["mod", "ular"], ["fe", "llow"], ["Ph", "ill"], ["Sp", "e"], ["a", "than"], ["lec", "tur"], ["tur", "al"], ["through", "out"], ["4:", "30"], ["D", "ual"], ["vis", "ual"], ["lic", "ens"], ["int", "ens"], ["Stu", "di"], ["B", "ran"], ["learn", "ed"], ["what", "'s"], ["00", "\u00e2\u0122\u0135"], ["On", "-"], ["information", "."], ["[", "Spring"], ["201", "2."], ["Wor", "d"], ["ect", "ors"], ["Ro", "y"], ["al", ".,"], ["comput", "ing."], ["t", "y."], ["Res", "ult"], ["N", "ash"], ["online", "ar"], ["dis", "k"], ["vari", "able"], ["O", "lin"], ["3", "45"], ["0", "1-"], ["high", "-"], ["For", "mal"], ["expl", "an"], ["sol", "ved"], ["science", ","], ["buil", "t"], ["he", "av"], ["aw", "n"], ["Bo", "x"], ["-", "deep"], ["than", "ks"], ["r", "ator"], ["no", "tice"], ["Program", ","], ["mal", "ware"], ["P", "ress"], ["N", "on-"], ["Re", "ason"], ["Typ", "es,"], ["content", "."], ["Is", "su"], ["Is", "is"], ["mat", "ric"], ["pass", "ing"], ["theory", ","], ["Dec", "ision"], ["3", "2-"], ["Ann", "ounce"], ["ent", "ry"], ["And", "re"], ["C", "enter"], ["Trans", "form"], ["con", "ditional"], ["complete", "ly"], ["Pres", "s,"], ["high", "-level"], ["specific", "ation"], ["He", "ad"], ["skill", "s."], ["people", "."], ["go", "als"], ["Rel", "ated"], ["IN", "F"], ["trac", "king"], ["trac", "ing"], ["object", "s"], ["Sort", ","], ["Tra", "ce"], ["Loc", "al"], ["200", "7."], ["web", "cast"], ["Object", "s"], ["mach", "ines"], ["reason", "able"], ["tutorial", "s"], ["particular", ","], ["48", "60"], ["bl", "ue"], ["grad", "ed."], ["time.", "#"], ["de", "partment"], ["mod", "ified"], ["se", "lection"], ["61", "AS"], ["Start", "ed"], ["world", "."], ["if", "ying"], ["f", "ying"], ["ma", "tics,"], ["d", "raw"], ["D", "raw"], ["So", "ci"], ["cer", "tain"], ["Ef", "ficient"], ["eas", "y"], ["i", "bility"], ["S", "VM"], ["write", "-up"], ["parallel", "ism"], ["abstrac", "t"], ["collabor", "ate"], ["Fu", "ll"], ["que", "ue"], ["bound", "s"], ["handout", "-"], ["random", "ized"], ["(P", "UN"], ["Par", "adig"], ["Abstrac", "t"], ["493.", "66"], ["challeng", "es"], ["cur", "ve"], ["isting", "u"], ["Sam", "ple"], ["min", "ute"], ["communic", "ation"], ["pixel", "s"], ["MB)(id:", "19"], ["thor", "ough"], ["Nor", "mal"], ["Prob", "ability"], ["compon", "ents"], ["ad", "minist"], ["Add", "ress"], ["Assist", "ants"], ["Pe", "ter"], ["Ef", "fect"], ["Email", ":"], ["exact", "ly"], ["again", "st"], [".", "org/"], ["analyz", "e"], ["t", "emplate"], ["coordin", "ates"], ["Open", "MP"], ["cl", "usion"], ["assist", "ant"], ["15-4", "40"], ["A", "aron"], ["15-", "213"], ["diffic", "ult"], ["Pro", "tocol"], ["um", "stan"], ["nam", "ed"], ["Char", "acter"], ["K", "yun"], ["int", "ended"], ["Expl", "or"], ["correc", "ted"], ["As", "sembly"], ["id", "den"], ["cent", "ral"], ["announce", "ments."], ["py", "parse"], ["224", "d"], ["O", "xford"], ["o", "xford"], ["a-", "section-"], ["Vari", "ables,"], ["sampl", "ing"], ["Requi", "re"], ["Requi", "red"], ["Cl", "ustering"], ["Ac", "tivation"], ["you", "'ve"], ["h", "ope"], ["cal", "endar"], ["Also", ","], ["Spec", "ific"], ["tom", "orrow"], ["watch", "ing"], ["MAT", "H"], ["princi", "pal"], ["ensi", "tive"], ["conn", "ect"], ["L", "udd"], ["Weis", "s"], ["Manage", "ment"], ["dimension", "al"], ["Document", "ation"], ["auto", "matically"], ["NO", "W"], ["mic", "ro"], ["cho", "ose"], ["cate", "gori"], ["Dead", "lock"], ["ex", "plicit"], ["Altern", "ative"], ["V", "ulner"], ["ENGR", "108"], ["Christo", "pher"], ["calcul", "us"], ["recursion", ","], ["nes", "s,"], ["viol", "ation"], ["Frac", "ture"], ["grow", "th"], ["10/2014", "fa/"], ["digit", "al"], ["Em", "phas"], ["ID", "IA"], ["Gro", "ver"], ["K", "arel"], ["comfor", "table"], ["Pers", "onal"], ["ac", "cording"], [".", "py."], ["Lectur", "er:"], ["em", "ploy"], ["in", "frastructure"], ["appreci", "ate"], ["Lat", "est"], ["squ", "ares"], ["Acces", "sibility"], ["concep", "tual"], ["Pri", "vacy"], ["Fedkiw", ","], ["http://", "ocw.mit.edu/courses/electrical-engineering-and-computer-science/"], ["nl", "p-"], ["cam", "pus"], ["Eul", "er"], ["Dig", "ital"], ["yn", "omial"], ["War", "zone"], ["Emb", "edded"], ["sign", "ificant"], ["http://www.cs.cornell.edu/", "Courses"], ["cor", "responding"], ["K", "evin"], ["Ur", "ban"], ["Ster", "e"], ["bers", "ecurity"], ["mob", "ile"], ["licens", "ed"], ["-cs", "-deep"], ["Isis", "2"], ["section-", "handout-"], ["(PUN", "CT"], ["circ", "umstan"], ["Ludd", "y"], ["NV", "IDIA"], [".py.", "out"], ["oxford", "-cs-deep"], ["oxford-cs-deep", "nlp-"], ["n", "d"], ["n", "."], ["g", "s"], ["m", "."], ["k", ","], ["N", "E"], ["O", "B"], ["e", "y"], ["5", "3"], ["4", "1"], ["J", ":"], ["j", "-"], ["C", "H"], [".", "\""], ["k", "l"], ["(", "b"], ["P", "u"], ["7", "5"], ["x", "-"], ["T", "O"], ["0", ")"], ["\u00f0", "\u0141"], ["6", "3"], ["S", "/"], ["_", "g"], ["Q", "R"], ["L", "L"], ["(", "'"], ["\u00e2", "\u0139"], ["g", "z"], [".", "/"], ["R", "X"], ["/", ")"], ["in", "s"], ["e", "in"], ["a", "er"], ["th", "."], ["l", "an"], ["V", "an"], ["s", "or"], ["S", "or"], ["re", "m"], ["al", "th"], ["H", "al"], ["is", "ing"], ["er", "ed"], ["at", "s"], ["E", "le"], ["g", "le"], ["C", "as"], ["S", "to"], ["k", "it"], ["P", "it"], ["st", "u"], ["1", "st"], ["ou", "se"], ["se", "en"], ["P", "ra"], ["ll", "i"], ["ic", "ation"], ["si", "b"], ["pro", "t"], ["h", "am"], ["i", "am"], ["J", "am"], ["and", "ex"], ["ar", "s,"], ["u", "s,"], ["T", "ri"], ["A", "ri"], ["omp", "o"], ["ac", "ent"], ["us", "s"], ["us", "se"], ["In", "d"], ["o", "gn"], ["un", "ch"], ["res", "t"], ["ro", "ot"], ["L", "et"], ["em", "p"], ["m", "em"], ["M", "ur"], ["ut", "es"], ["id", "="], ["ic", "ul"], ["v", "ul"], ["ne", "ar"], ["a", "gram"], ["ine", ","], ["b", "all"], ["s", "pl"], ["M", "ass"], ["su", "res"], ["to", "day"], ["ci", "pl"], ["co", "s"], ["f", "fic"], ["R", "out"], ["h", "ang"], ["ment", "s:"], ["C", "ha"], ["ha", "vi"], ["in", "ess"], ["s", "ess"], ["6", "11"], ["di", "tions"], ["St", "ore"], ["K", "ore"], ["te", "ll"], ["t", "ag"], ["M", "ag"], ["l", "es,"], ["U", "ses"], ["Con", "ver"], ["av", "ing"], ["j", "av"], ["S", "av"], ["g", "ory"], ["so", "on"], ["Ex", "ec"], ["Ch", "u"], ["Ch", "an"], ["4", "15"], ["http://", "15"], ["12", "5"], ["com", "ing"], ["(", "but"], ["rac", "tic"], ["qu", "ite"], ["de", "li"], ["ust", "in"], ["g", "ant"], [".edu/", "cs"], ["Le", "ad"], ["(", "if"], ["other", "s"], ["th", "read"], ["fo", "o"], ["students", "'"], ["gi", "es"], ["Project", ":"], ["(", "24"], ["24", "0"], ["af", "e"], ["Gra", "de"], ["u", "red"], ["/2", "2"], ["5", "/2"], ["ad", "ding"], ["fin", "ding"], ["ac", "tor"], ["Co", "vers"], ["13", "/"], ["may", "be"], ["P", "ages"], ["design", "."], ["homework", "s,"], ["Learning", "**"], ["http://www", "-"], ["ha", "ven"], ["E", "ven"], ["ser", "ve"], ["k", "ill"], ["web", ","], ["C", "urr"], ["tr", "ick"], ["list", ","], ["r", "y,"], ["r", "ish"], ["de", "term"], ["50", "%"], ["inter", "act"], ["ec", "tion,"], ["Rec", "on"], ["gr", "ant"], ["It", "'s"], ["lab", "s,"], ["L", "ight"], ["R", "ight"], ["EE", "CS"], ["model", "ing,"], ["rough", "ly"], ["it", "ten"], ["at", "ten"], ["25", ","], ["20", "21"], ["26", "1:"], ["(", "26"], ["26", ":"], ["(", "Stanford"], ["S", "TA"], ["Par", "sing"], ["graph", "ical"], ["https://", "see"], ["program", "s,"], ["app", "ing"], ["\u00e2\u0122\u013b", "re"], ["(", "which"], ["cre", "ated"], ["ced", "ural"], ["sim", "pl"], ["make", "up"], [".edu/~", "j"], ["A", "like"], ["D", "ynam"], ["Piazza", "."], ["sch", "em"], ["sk", "i"], ["re", "load"], ["us", "ual"], ["network", "s."], ["Java", "."], ["available", "."], ["m", "ond"], ["For", "ens"], ["G", "ran"], ["implement", "ing"], ["in", "ference"], ["a", "way"], ["way", ","], ["IS", "T"], ["(", "2."], ["process", "ing,"], ["gener", "ated"], ["gener", "ation"], ["gener", "ate"], ["R", ".,"], ["includ", "ed"], ["Eng", "ine"], ["test", "s"], ["site", "."], ["point", "s,"], ["(", "22"], ["link", "ed"], ["ati", "al"], ["su", "pp"], ["T", "uring"], ["Jo", "sh"], ["Cal", "tech"], ["C++", ","], ["fil", "es."], ["-", "down"], ["high", "ly"], ["typ", "ed"], ["(", "UC"], ["\\(", "+"], ["solution", "s,"], ["solution", "s."], ["L", "aw"], ["implement", "ation."], ["grade", ","], ["R", "ough"], ["47", "7"], ["4", "47"], ["question", "."], ["Memory", ","], ["\u0120", "\u00c2\u0142\u00c2\u0142\u0120"], ["re", "presentation"], ["well", "."], ["199", "3"], ["ges", "tion"], ["c", "atch"], ["open", "-"], ["textbook", "."], ["mb", "olic"], ["2-", "3"], ["0", "2-"], ["nor", "m"], ["ality", "."], ["Harvard", "'s"], ["em", "por"], ["-", "side"], ["topic", "s,"], ["Pre", "fer"], ["inte", "gr"], ["Un", "less"], ["Pre", "vious"], ["PS", "2"], ["cus", "tom"], ["ad", "vice"], ["L", "IN"], ["j", "ection"], ["Map", "s"], ["Map", ","], ["object", "s,"], ["S", "ki"], ["Sort", "ing"], ["every", "one"], ["camer", "as"], ["Tra", "ject"], ["H", "ave"], ["lat", "est"], ["Det", "ail"], ["correct", "ly"], ["med", "ical"], ["-", "fall"], ["ideas", ","], ["Tutorial", "s"], ["tutorial", ","], ["l", "iter"], ["vic", "es."], ["ince", "ton"], ["Ste", "ve"], ["Compil", "ing"], ["/2013", "fa/"], ["fl", "ag"], ["Vector", ","], ["bl", "ack"], ["recent", "ly"], ["6.85", "7"], ["Pa", "ul"], ["col", "lection"], ["Pointer", "s,"], ["par", "tial"], ["map", "s"], ["compil", "ers,"], ["ad", "vised"], ["f", "aster"], ["up", "enn"], ["think", "ing"], ["View", "s"], ["submission", "s"], ["Prelim", "s"], ["lim", "ited"], ["ac", "qui"], ["ame", "ters"], ["prog", "res"], ["approxim", "ate"], ["Array", "s,"], ["abstrac", "tion"], ["background", "."], ["human", "-"], ["le", "ft"], ["RR", "R"], ["inter", "pol"], ["Pass", "ing"], ["approach", "es"], ["require", "ments"], ["sort", "ing"], ["inte", "ger"], ["aim", "s"], ["D", "omain"], ["challeng", "ing"], ["W", "OR"], ["OO", "P"], ["proof", "s"], ["match", "ing"], ["incre", "ase"], ["St", "ars"], ["st", "ars"], ["ste", "ad"], ["Con", "struction"], ["Appro", "ach"], ["technolog", "ies"], ["invol", "ve"], ["environ", "ments"], ["N", "ik"], ["inter", "active"], ["experiment", "al"], ["CS106", "B"], ["Run", "ning"], ["For", "got"], ["auto", "matic"], ["can", "\u00e2\u0122\u013bt"], ["array", "s,"], ["sk", "etch"], ["pur", "ch"], ["ch", "astic"], ["A", "verage"], ["consist", "ent"], ["setup", "_"], ["coordin", "ate"], ["r", "ules"], ["As", "soci"], ["extension", "s"], ["N", "avig"], ["x", "86"], ["Tex", "as"], ["sim", "ply"], ["Cont", "inue"], ["Break", "down"], ["penal", "ty"], ["st", "ored"], ["E", "vent"], ["rap", "id"], ["gh", "yun"], ["6.0", "46"], ["Red", "d"], ["squ", "are"], ["(3", "4),"], ["(3", "2),"], ["Real", "-"], ["fig", "ure"], ["assum", "es"], ["altern", "ative"], ["SIG", "COM"], ["si", "ze"], ["ol", "ders"], ["cl", "ustering"], ["rece", "ived"], ["Tensor", "flow"], ["large", "-scale"], ["ho", "od"], ["D", "r."], ["G", "reat"], ["exec", "ution"], ["St", "atic"], ["imag", "es."], ["ever", "ything"], ["Soda", ")"], ["inst.eecs.berkeley.edu/~cs", "16"], ["Dem", "o:"], ["onom", "ous"], ["Chall", "eng"], ["curr", "ency,"], ["Congratulations", "!"], ["s.", "csail.mit.edu/"], ["Sw", "ap"], ["quiz", "zes"], ["electr", "onic"], ["Dri", "ve"], ["pip", "eline"], ["Cred", "it"], ["-", "Assignment-"], ["center", "ed"], ["S", "afety"], ["Approxim", "ation"], ["Jacob", "ian"], ["GD", "B"], ["(U", "grad"], ["An", "ti-"], ["pat", "tern"], ["Four", "ier"], ["chall", "enge"], ["addi", "tion,"], ["align", "ment"], ["Know", "ledge"], ["Tran", "s."], ["Map", "Reduce"], ["ari", "thmetic"], ["Pol", "y"], ["imp", "act"], ["separ", "ate"], ["exam", "ples."], ["Pat", "rick"], ["re", "ports"], ["ADT", "s"], ["no", "tify"], ["said", ","], ["Sel", "f-"], ["MW", "F"], ["UV", "AD"], ["under", "lying"], ["(S", "ect."], ["an", "archy"], ["Mart", "in"], ["mid", "night"], ["Con", "tribut"], ["Fundament", "al"], ["courses.cs.", "cmu.edu/"], ["Random", "ized"], ["comm", "ercial"], ["Super", "vised"], ["ob", "jectives"], ["am", "ortiz"], ["compreh", "ensive"], ["wi", "kipedia"], ["Alex", "ander"], ["proc", "edu"], ["you", "tube"], ["Bet", "ween"], ["plat", "form"], ["a-", "Cham"], ["Rec", "itations"], ["sys", "call"], ["Cr", "ypto"], ["gradu", "ates"], ["relative", "ly"], ["andrew", ".cmu"], ["C", "UNY"], ["advant", "age"], ["des", "ug"], ["Cus", "tom"], ["Sc", "ott"], ["que", "ues,"], [".stanford.edu/", "Course/"], ["ppt", "x"], ["lists.", "stanford.edu"], ["gnos", "tics"], ["Phill", "ips"], ["intens", "ity"], ["penal", "ty."], ["Soci", "ety"], ["Require", "ments"], ["Stere", "o"], ["circumstan", "ces"], ["oxford-cs-deepnlp-", "2017/"], ["2", "nd"], ["\u00e2\u0139", "\u0131"], ["Sch", "ein"], ["og", "gle"], ["Rec", "ogn"], ["min", "utes"], ["vul", "can"], ["dis", "cipl"], ["As", "sess"], ["ele", "gant"], ["-Share", "Alike"], ["norm", "ally"], ["Kyun", "ghyun"], ["SIGCOM", "M"], ["UVAD", "L"], ["Urban", "a-Cham"], ["https://see", ".stanford.edu/Course/"], ["Schein", "man"], ["UVADL", "C"], ["Urbana-Cham", "paign"], ["c", "a"], ["e", "e"], ["-", "m"], ["M", "i"], ["t", "-"], ["F", "a"], ["J", "e"], ["B", ":"], ["(", "G"], ["d", "b"], ["(", "r"], ["B", "-"], ["#", "3"], ["I", ":"], ["k", "a"], ["(", "F"], ["q", "s"], ["_", "p"], ["(", "c"], ["A", ","], ["{", "{"], ["}", "}"], ["-", "n"], ["-", "M"], ["M", "M"], ["-", "H"], ["9", "8"], ["f", ","], ["L", "u"], ["y", "u"], ["E", "s"], ["-", "I"], ["6", "4"], ["7", "8"], ["c", "d"], ["(", ")"], [":", ":"], ["?", ","], ["V", "C"], ["d", "p"], ["H", "y"], ["A", "0"], ["_", "r"], ["\u00c3", "\u0139"], ["\"", ":"], ["B", "N"], ["\u00c3", "\u00a5"], ["n", "on"], ["h", "on"], ["H", "on"], ["B", "on"], ["H", "er"], ["L", "er"], ["th", ":"], ["es", "/"], ["ti", "g"], ["s", "en"], ["s", "al"], ["al", "ing"], ["M", "is"], ["g", "ed"], ["ed", "s"], ["the", "at"], ["u", "ro"], ["tion", "ed"], ["S", "ar"], ["T", "ar"], ["G", "ar"], ["to", ","], ["it", "z"], ["st", "ar"], ["ec", "e"], ["B", "ec"], ["ic", "a"], ["ic", "on"], ["H", "ic"], ["s", "ent"], ["i", "ent"], ["w", "ent"], ["C", "ent"], ["om", "es"], ["ll", ","], ["ll", "er"], ["in", "ation"], ["an", "ch"], ["ou", "ch"], ["d", "am"], ["am", "in"], ["se", "am"], ["ver", "n"], ["en", "ab"], ["20", "%"], ["20", "4"], ["V", "s."], ["al", "s,"], ["C", "ri"], ["T", "ow"], ["h", "ol"], ["ol", "ve"], ["are", ":"], ["us", "ic"], ["ot", "s"], ["at", "ur"], ["ur", "ch"], ["T", "ur"], ["cl", "ar"], ["In", "cl"], ["S", "ut"], ["course", ":"], ["\u0120", "\u00c2\u0142"], ["ne", "y"], ["4", "10"], ["10", "1"], ["tic", "s."], ["all", ","], ["B", "all"], ["con", "v"], ["pl", "ing"], ["ap", "pl"], ["an", "im"], ["ti", "vi"], ["St", "ar"], ["el", "or"], ["o", "ci"], ["not", ","], ["Pro", "gramm"], ["po", "le"], ["d", "ist"], ["m", "ist"], ["r", "out"], ["us", "age"], ["to", "ok"], ["W", "ang"], ["sh", "ar"], ["sh", "ad"], ["Comp", "le"], ["est", "ed"], ["ra", "di"], ["ach", "im"], ["oun", "ter"], ["ol", "der"], ["te", "le"], ["ag", "ent"], ["s", "can"], ["up", "per"], ["up", "y"], ["id", "es,"], ["in", "es,"], ["An", "der"], ["oun", "ts"], ["form", "ul"], ["(", "Con"], ["class", "/"], ["class", "es,"], ["sp", "ent"], ["p", "rec"], ["d", "av"], ["end", "or"], ["sp", "end"], ["S", "end"], ["University", "-"], ["mo", "de"], ["Ch", "e"], ["al", "one"], ["/", "project"], ["3", "15"], ["15", ")"], ["g", "ers"], ["fin", "der"], ["g", "ard"], ["ment", "ary"], ["M", "ir"], ["1", "30"], ["ber", "g"], ["do", "cs"], ["not", "es."], ["assignment", "-"], ["200", "3"], ["5", "14"], ["po", "inter"], ["due", ","], ["system", "."], ["Programming", ","], ["5", "pm"], ["pm", "-"], ["su", "pre"], ["exam", "s,"], ["exam", "ine"], ["no", "on"], ["no", "v"], ["Al", "ign"], ["view", "ed"], ["X", "ia"], ["R", "ail"], ["i", "red"], ["For", "mat"], ["For", "um"], ["pd", "r"], ["ari", "o"], ["cl", "ari"], ["mit", ".edu"], ["16", "."], ["(", "16"], ["week", "s."], ["Co", "q"], ["enc", "il"], ["-", "learning"], ["hour", "s,"], ["(", "using"], ["Learning", ":"], ["Wed", "s."], ["Wed", "."], ["T", "ill"], ["Re", "ill"], ["18", "0"], ["in", "du"], ["al", "man"], ["se", "man"], ["list", "s,"], ["list", "s"], ["Ap", "p"], ["Fin", "ding"], ["Mo", "ore"], ["olu", "tion,"], ["text", ","], ["lab", "el"], ["We", "ight"], ["s", "html"], ["Rec", "over"], ["comple", "ten"], ["(", "25"], ["25", "."], ["-", "2:"], ["All", "ow"], ["here", ":"], ["M", "ind"], ["23", ":"], ["first", "."], ["P", "into"], ["3:", "30"], ["comp", "ile"], ["Pr", "ice"], ["2", "/0"], ["Graph", "."], ["Sp", "am"], ["through", "s"], ["Analysis", ","], ["network", "ing"], ["lectures", "/"], ["Thursday", "s,"], ["200", "1."], ["late", ","], ["am", "\u00e2\u0122\u0135"], ["video", "s."], ["olog", "y,"], ["image", ","], ["(", "Spring"], ["R", "IS"], ["th", "ors"], ["version", "s"], ["enc", "y."], ["co", "ded"], ["Web", "site"], ["group", "."], ["Set", "ting"], ["Stud", "y"], ["f", "lex"], ["Comp", "lex"], ["lex", "er"], ["lex", "ical"], ["22", ","], ["right", "s"], ["en", "sure"], ["Con", "tain"], ["D", "uring"], ["Jo", "y"], ["Cal", "i"], ["post", "ed,"], ["not", "ed,"], ["section", "."], ["high", "er"], ["\\(", "n"], ["\\(", "u"], ["\\(", "\\"], ["crip", "ts"], ["re", "pe"], ["science", "."], ["aw", "are"], ["ex", "pon"], ["cept", "ron"], ["year", "s."], ["For", "ks"], ["I", "'ll"], ["Reg", "ist"], ["6.8", "24"], ["Sh", "ell"], ["ator", "s,"], ["gener", "ator"], ["oper", "ations"], ["C", "AP"], ["http://www.cs.cornell.edu/courses/CS", "47"], ["http://www.cs.cornell.edu/courses/CS", "11"], ["p", "atch"], ["di", "tions,"], ["sur", "pr"], ["word", "s"], ["textbook", ","], ["Method", "s,"], ["J", "ason"], ["a", "ive"], ["Berkeley", ")"], ["3-", "4"], ["ate", "ly,"], ["B", "ry"], ["sel", "ves"], ["CI", "L"], ["Be", "ing"], ["200", "8."], ["8.", "2."], ["ref", "ra"], ["look", "s"], ["cor", "por"], ["offer", "ings"], ["rew", "er"], ["vision", "-"], ["vision", "s"], ["ros", "s-"], ["Use", "ful"], ["recommend", "ed."], ["plan", "e,"], ["aly", "tics"], ["PS", "1"], ["au", "tom"], ["(", "updated"], ["Ac", "count"], ["Search", ","], ["schedule", "."], ["Object", "s,"], ["compil", "ers"], ["Thread", "s,"], ["chapter", "s"], ["academic", ".cs."], ["Time", ":"], ["Mar", "sch"], ["(", "Sun"], ["Compil", "ation"], ["cmu", ".edu"], ["Dem", "os"], ["under", "grad"], [".mit", ".edu"], ["possible", "."], ["Languages", "**"], ["Overview", ","], ["Con", "stra"], ["/", "home"], ["/", "2015"], ["show", "ing"], ["30-", "6:"], ["/2014", "fa/"], ["En", "roll"], ["ch", "ool"], ["re", "vised"], ["Or", "der"], ["vari", "ants"], ["classi", "fi"], ["classi", "fic"], ["begin", "ning"], ["spring", "-"], ["So", "cial"], ["L", "IC"], ["C", "OS"], ["(3", "5),"], ["/", "teaching"], ["aud", "io"], ["copy", "right"], ["Practical", "_"], ["Array", "List"], ["abstrac", "tions"], ["emphas", "izing"], ["CS", "44"], ["complex", "ity,"], ["cap", "s"], ["/", "2012"], ["mean", "ing"], ["pret", "ty"], ["s", "ensor"], ["General", "ization"], ["con", "currency"], ["200", "4)"], ["educ", "ational"], ["Make", "file"], ["yourself", ","], ["G", "ross"], ["Val", "id"], ["an", "imation"], ["produc", "tive"], ["produc", "tion"], ["Ques", "tion"], ["Statis", "tics"], ["Al", "gebra"], ["to", "ler"], ["ele", "ments"], ["sit", "es."], ["note", "book"], ["de", "finite"], ["high", "light"], ["public", "ly"], ["ste", "in"], ["Bri", "ef"], ["At", "tend"], ["in", "struction"], ["weight", "ed"], ["/index.", "php"], ["a", "head"], ["invol", "ved"], ["Fra", "me"], ["for", "tun"], ["re", "verse"], ["Re", "verse"], ["des", "cribe"], ["schedul", "ed"], ["..", "."], ["pur", "pose"], ["else", "where"], ["theore", "tic"], ["happ", "y"], ["re", "member"], ["prerequis", "ites"], ["analyz", "ing"], ["Ag", "ree"], ["ar", "ticle"], ["Ex", "pression"], ["Quick", "sort"], ["Ma", "ximum"], ["Inter", "faces"], ["Exercis", "e"], ["Sur", "vey"], ["att", "acks"], ["Dis", "miss"], ["miss", "ed"], ["appoint", "ment."], ["Recursion", ","], ["prof", "essional"], ["ill", "ino"], ["stan", "tial"], ["W", "rap"], ["che", "at"], ["st", "orage"], ["Par", "ameter"], ["Re", "presentations"], ["Fin", "ally,"], ["**", "CIS"], ["statis", "tical"], ["flu", "id"], ["Hw", "k."], ["C", "DS"], ["super", "vised"], ["Meet", "ing"], ["Ga", "ussian"], ["describ", "ing"], ["Fo", "llow"], ["sh", "ape"], ["@", "stanford.edu"], ["regression", ","], ["d", "atabases"], ["i.", "e."], ["O", "(n"], ["ini", "tial"], ["tra", "ining"], ["M", "itch"], ["over", "lap"], ["st", "atic"], ["Cal", "endar"], ["Sum", "mary"], ["Ar", "rays"], ["ic", "ious"], ["estim", "ate"], ["remain", "ing"], ["e-", "mail"], ["Jer", "em"], ["di", "ana"], ["cle", "arly"], ["5", "/23"], ["de", "fault"], ["Manip", "ulation"], ["Command", "s"], ["-", "body"], ["equilibri", "a"], ["Mer", "ge"], ["ent", "angle"], ["stru", "gg"], ["Ap", "pen"], ["spec", "ify"], ["phys", "ics"], ["24-", "34"], ["Labor", "atory"], ["ma", "pping"], ["Pattern", "s"], ["Ob", "jective"], [".", "Register:"], ["expression", "s"], ["hy", "per"], ["ener", "gy"], ["(L", "IT"], ["Mat", "ching"], ["inform", "ation,"], ["Den", "ial"], ["cas", "ion"], ["Inst", "all"], ["ting-", "edge"], ["techniqu", "es,"], ["CS46", "20"], ["reconstruc", "tion,"], ["war", "game."], ["https://courses.", "csail.mit.edu/"], ["Syn", "thesis"], ["@", "stonybrook.edu"], ["switch", "ed"], ["kn", "own"], ["o", "lean"], ["Fac", "ulty"], ["B", "loom"], ["gra", "dient"], ["Bound", "s"], ["Song", ","], ["advis", "or"], ["Log", "istics"], ["logic", ","], ["-", "Based"], ["Re", "ferences"], ["accessible", ")"], ["Philos", "oph"], ["Illino", "is,"], ["ympto", "tic"], ["hu", "ge"], ["3", "rd"], ["al", "ert"], ["ra", "tio"], ["arti", "cles"], ["lar", "gest"], ["spec", "ifi"], ["prepar", "ation"], ["num", "erical"], ["regist", "rar"], ["E", "astern"], ["Manip", "ulator"], ["Grades", "cope"], ["Scienti", "fic"], ["i>click", "er"], ["\u00e2\u0128", "\u0134"], ["Web", "GL"], ["prom", "pt"], ["suit", "able"], ["Base", "ment"], ["beli", "eve"], ["reser", "ved."], ["announ", "ced"], ["Happ", "y"], ["D", "awn"], ["categori", "zation"], ["Will", "iam"], ["semin", "ars,"], ["curr", "icul"], ["Exec", "ution"], ["(24", "),"], ["haven", "'t"], ["determ", "ine"], ["grant", "ed"], ["Wr", "itten"], ["con", "gestion"], ["Ski", "ena"], ["-fall", "-"], ["acqui", "re"], ["(K", "E"], ["F", "olders"], ["syscall", "s:"], ["desug", "ar"], ["staff@", "lists.stanford.edu"], ["Dia", "gnostics"], ["Recogn", "ition"], ["Attribution", "-ShareAlike"], ["sal", "ary"], ["enab", "led"], ["Ch", "urch"], ["ach", "elor"], ["Jo", "achim"], ["O'", "Reill"], ["indu", "str"], ["Per", "ceptron"], ["CIL", "VR"], ["LIC", "EN"], ["Practical_", "RL"], ["Agree", "ment"], ["illino", "is"], ["Mitch", "ell"], ["Appen", "dix"], ["(KE", "Y"], ["(KEY", "WOR"], ["(KEYWOR", "D"], ["n", ","], ["r", "u"], ["y", "o"], ["s", "w"], ["I", "O"], ["c", ","], ["E", "D"], ["P", "O"], ["x", "i"], ["-", "f"], ["W", "a"], ["G", "r"], ["c", "m"], ["K", "o"], ["E", "v"], ["K", "a"], ["B", "F"], ["B", ","], ["R", "i"], ["D", "M"], ["3", "8"], ["T", "S"], ["P", "A"], ["D", "U"], ["7", "9"], ["P", "D"], ["d", "c"], ["(", "j"], ["J", "i"], ["M", "T"], ["]", "["], ["-", "Z"], ["F", "."], ["b", "d"], ["U", "T"], ["U", "h"], ["N", "S"], ["=", "0"], ["L", "O"], ["Q", "&"], ["A", "*"], ["B", "M"], ["k", "m"], ["x", "x"], ["in", "a"], ["-", "in"], ["B", "in"], ["N", "on"], ["in", "er"], ["7", "th"], ["T", "an"], ["i", "or"], ["or", "n"], ["T", "or"], ["S", "en"], ["S", "ou"], ["F", "re"], ["m", "ing"], ["ing", "er"], ["p", "ed"], ["to", ":"], ["it", "a"], ["it", "u"], ["it", "an"], ["of", ":"], ["ic", "o"], ["p", "ent"], ["H", "om"], ["om", "ic"], ["om", "or"], ["de", "-"], ["de", "le"], ["ation", "-"], ["ch", "at"], ["u", "ce"], ["on", "ce"], ["Th", "en"], ["re", "ve"], ["ver", ","], ["20", "."], ["20", "20"], ["20", "si"], ["H", "ol"], ["il", "k"], ["ad", "o"], ["C", "are"], ["are", "a"], ["In", "i"], ["F", "un"], ["ot", "ed"], ["R", "ot"], ["m", "et"], ["se", "em"], ["it", "em"], ["Pro", "to"], ["ity", "."], ["B", "ur"], ["ex", "cl"], ["id", "d"], ["course", "/"], ["course", "?"], ["ad", "ap"], ["(", "with"], ["work", "ed"], ["course", "work"], ["10", "6"], ["ate", "."], ["ate", "ver"], ["ate", "ll"], ["C", "ate"], ["vi", "al"], ["de", "vi"], ["el", ":"], ["co", "-"], ["ist", "or"], ["for", "ni"], ["b", "od"], ["od", "es"], ["%", "),"], ["Re", "qu"], ["sh", "ap"], ["ph", "il"], ["ph", "ot"], ["B", "est"], ["vers", "al"], ["vers", "ing"], ["lec", "tions"], ["11", ")"], ["11", "."], ["C", "ore"], ["der", "i"], ["Pro", "duc"], ["as", "te"], ["l", "ag"], ["s", "es,"], ["c", "es,"], ["I", "ts"], ["a", "ther"], ["Con", "st"], ["class", ":"], ["class", "ic"], ["so", "le"], ["U", "ta"], ["c", "um"], ["Se", "lec"], ["wi", "ld"], ["Ch", "ad"], ["N", "one"], ["15", "0"], ["15", ","], ["12", ")"], ["(", "12"], ["com", "b"], ["ext", "re"], ["ext", "end"], ["us", "ers"], ["ach", "use"], ["use", ","], ["ext", "rac"], ["ard", "s"], ["line", ","], ["line", "."], ["5", "00"], ["lec", "tive"], ["d", "ing,"], ["Computer", "s"], ["De", "v"], ["-", "De"], ["class", "es."], ["3", "14"], ["inter", "n"], ["S", "ide"], ["H", "ide"], ["de", "pt"], ["sh", "own"], ["(", "19"], ["7", "19"], [".", "gi"], ["gi", "on"], ["Cl", "ust"], ["exam", "s."], ["Project", "ed"], ["24", "."], ["bas", "is"], ["no", "vel"], ["no", "is"], ["cont", "ext"], ["(", "If"], ["Ar", "m"], ["Ar", "tic"], ["on", "ical"], ["class", "ical"], ["computer", "s,"], ["inter", "net"], ["material", "s,"], ["2014", "/"], ["week", ","], ["(", "13"], ["13", ","], ["4", "13"], ["5", "13"], ["enc", "ing"], ["hour", ":"], ["Net", "s"], ["res", "tr"], [".cs.", "uc"], ["design", "ing,"], ["Learning", ","], ["En", "ter"], ["se", "ven"], ["(", "6."], ["2", "6."], ["ill", "u"], ["Wh", "ite"], ["Ac", "tive"], ["18", ")"], ["du", "plic"], ["0", "1:"], ["le", "y,"], ["ob", "j"], ["am", "ong"], ["discus", "sing"], ["-", "term"], ["50", ":"], ["De", "part"], ["part", "y"], ["sec", "tion,"], ["gr", "as"], ["HW", "4"], ["HW", "2"], ["R", "os"], ["as", "king"], ["ec", "king"], ["Algorithm", "s,"], ["Algorithm", ","], ["sc", "en"], ["sc", "r"], ["id", "enti"], ["text", ")"], ["lab", ","], ["tiv", "ari"], ["(", "Cornell"], ["Y", "ear"], ["ef", "for"], ["con", "fir"], ["Li", "ke"], ["Li", "k"], ["Ma", "king"], ["rel", "ations"], ["Fri", "ed"], ["21", "-"], ["2:", "00"], ["26", "2"], ["L", "ind"], ["2", "23"], ["first", "-"], ["n", "ice"], ["van", ","], ["mo", "ving"], ["Qu", "ad"], ["TA", "."], ["Str", "ings"], ["Final", "s"], ["Th", "ose"], ["dem", "on"], ["app", "en"], ["Sh", "u"], ["ver", "ted"], ["\u00e2\u0122\u013b", "m"], ["Comput", "e"], ["Pr", "int"], ["is", ".edu/~"], ["-", "like"], ["method", "s."], ["method", "."], ["_", "based"], ["pri", "vi"], ["Design", "**"], ["pap", "er,"], ["d", "ark"], ["Cl", "ark"], ["ann", "ual"], ["11:", "30"], ["11:", "00"], ["sol", "v"], ["implement", ","], ["(", "1."], ["201", "1."], ["PM", "A"], ["late", "."], ["two", "."], ["con", "ference"], ["video", "."], ["way", "."], ["28", "7"], ["ID", "T"], ["it", "ude"], ["Network", "ing"], ["image", "."], ["T", "ask"], ["ess", "ors"], ["field", "s"], ["(", "40"], ["40", ","], ["40", "-"], ["es", "cal"], ["follow", "s:"], ["ded", "uc"], ["ash", "ion"], ["test", "ing,"], ["test", "1"], ["test", "2"], ["test", "3"], ["site", ","], ["G", "row"], ["Lab", "el"], ["fi", "gu"], ["Po", "int"], ["/cs", "26"], ["point", ","], ["point", "."], ["point", "s."], ["I", "ron"], ["cis", "19"], ["F", "lex"], ["file", "."], ["1", "up"], ["Read", "me"], ["comp", "ati"], ["g", "ency"], ["ma", "pp"], ["Jan", "."], ["when", "ever"], ["45", ":"], ["6", "45"], ["C++", "."], ["1-", "3"], ["1-", "2"], ["high", "est"], ["typ", "ing"], ["\\(", "v"], ["paper", "s."], ["he", "ap"], ["U", "pon"], ["analysis", "."], ["grade", "."], ["Tr", "y"], ["equ", "ip"], ["(", "graduate"], ["machine", "."], ["for", "ks"], ["se", "q"], ["introduc", "ing"], ["introduc", "ed"], ["199", "9"], ["Midterm", ":"], ["Chapter", "s"], ["Sim", "on"], ["(", "Machine"], ["s-", "new"], ["op", "s-"], ["atab", "as"], ["10", "3/"], ["z", "\\)"], ["tra", "in"], ["log", "ical"], ["(", "Per"], ["s", "ense"], ["Ne", "il"], ["Gra", "mm"], ["m", "ix"], ["un", "ix"], ["T", "SP"], ["ves", "h"], ["ser", "ves"], ["ap", "ath"], ["ac", "enter"], ["4", "9:"], ["por", "tional"], ["in", "side"], ["Con", "sist"], ["search", "."], ["s-", "search"], ["search", ","], ["offer", "s"], ["12:", "30"], ["class.", "org"], ["rew", "ard"], ["topic", "."], ["Min", "i"], ["est", "abl"], ["2009", "."], ["Feb", "."], ["-", "specific"], ["plan", "es"], ["Ex", "plan"], ["Theory", ":"], ["interest", "ing"], [".stanford", ".edu/~"], ["Au", "tom"], ["rece", "i"], ["Rel", "i"], ["midterm", "."], ["LE", "D"], ["IN", "G"], ["As", "signed"], ["to", "ken"], ["dec", "ide"], ["sup", "plement"], ["Mark", "us"], ["30", "/2013"], ["practical", "-"], ["Vi", "ol"], ["le", "ave"], ["S", "ave"], ["sam", "ples"], ["Loc", "k"], ["answer", "s."], ["ev", "ents"], ["date", "."], ["study", "ing"], ["Graphics", "**"], ["Structures", "**"], ["hw", "4"], ["2010", ","], ["structures", ","], ["Multi", "ple"], ["med", "ia"], ["med", "ian"], ["S", "ince"], ["Sun", "day"], ["1:", "00-"], ["Description", ":"], ["repository", "."], ["P", "CP"], ["CP", "U"], ["equ", "ations,"], ["Dem", "o"], ["security", ","], ["_", "policy"], ["http://www.cs.cornell.edu/courses/CS", "66"], ["CS", "66"], ["con", "cent"], ["allow", "ed"], ["spec", "ified"], ["Comp", "ression"], ["ref", "lection"], ["Pointer", "s"], ["mathema", "tics"], ["Do", "S"], ["stra", "ight"], ["found", "ation"], ["08", "/"], ["08", ")"], ["tre", "es"], ["memory", ","], ["](", "http://www."], ["tr", "ying"], ["Loc", "ation:"], ["M", "aster"], ["B", "ST"], ["D", "enn"], ["we", "'re"], ["lot", "s"], ["5.", "php"], ["short", "est"], ["ony", "m"], ["request", "s"], ["mark", "down"], ["mark", "ed"], ["attend", "."], ["ta", "kes"], ["VM", "ware"], ["cle", "an"], ["ac", "ters"], ["con", "dition"], ["ad", "dition"], ["2014", "sp/"], ["a", "tives"], ["Fe", "edback"], ["15", "0:"], ["(20", "24"], ["R", "educ"], ["educ", "ation:"], ["Big", "-"], ["Char", "lot"], ["Vari", "ous"], ["accept", "ed"], ["vector", "s,"], ["mi", "tive"], ["lar", "ger"], ["bot", "tom"], ["Intern", "al"], ["does", "n't"], ["prelim", "s"], ["equivalent", "."], ["OO", "C"], ["her", "it"], ["apply", "ing"], ["efficient", "ly"], ["6.", "04"], ["S", "LR"], ["AS", "LR"], ["Bri", "an"], ["fri", "day"], ["ussi", "ans"], ["Cal", "cul"], ["propos", "als"], ["pl", "anning"], ["provid", "ing"], ["invol", "ves"], ["above", "."], ["state", "-of-"], ["05", "/0"], ["High", "er-"], ["mar", "gin"], ["Ed", "itor"], ["random", "ization,"], ["optim", "ization,"], ["int", "ensive"], ["edition", "."], ["to", "day,"], ["Man", "aging"], ["g", "usfield"], ["b", "lock"], ["schedul", "es"], ["schedul", "ing,"], ["wait", "list"], ["framework", "s"], ["Public", "ations"], ["ret", "t"], ["care", "er"], ["de", "bug"], ["En", "try"], ["educ", "ators"], ["vari", "ables"], ["Buil", "d"], ["With", "out"], ["http://www.cs.", "berkeley.edu/~"], ["Ag", "ain"], ["MP", "I"], ["s", "oph"], ["R", "ules"], ["assist", "ants"], ["h", "istory"], ["soci", "ety"], ["(", "optional"], ["2110", "."], ["Watch", "ers"], ["39", "5."], ["IR", "C"], ["Tre", "es,"], ["Tre", "es"], ["Cod", "ing:"], ["wal", "k"], ["a", "aron"], ["\u00c2\u00a9", "2019"], ["earn", "ed"], ["recur", "sive"], ["diffic", "ulti"], ["brow", "n"], ["continu", "ed"], ["ons", "ored"], ["ext", "ended"], ["statis", "tics"], ["re", "construction"], ["official", "ly"], ["RPISEC", "/"], ["HE", "RE"], ["Bl", "ender"], ["etc", ".)"], ["(15", "),"], ["Ex", "ternal"], ["altern", "ate"], ["11:59pm", ")"], ["inter", "pretation"], ["Semaphore", ","], ["bu", "ffer"], ["Pack", "ages"], ["String", "s,"], ["us", "ually"], ["concept", "s,"], ["concept", "s."], ["spring", "2015/"], ["Tensor", "Flow"], ["ho", "st"], ["lap", "top"], ["Add", "resses"], ["Min", "imum"], ["Hard", "ware"], ["ser", "ious"], ["libr", "aries"], ["imag", "es,"], ["E", "ver"], ["n", "ature"], ["Ef", "ficiency"], ["Loop", ","], ["de", "bugging"], ["int", "ensi"], ["sp", "aces"], ["conn", "ection"], ["Weis", "s,"], ["you", "\u00e2\u0122\u013bll"], ["7:", "30pm,"], ["JavaScript", ","], ["IV", "E"], ["recurr", "ence"], ["indic", "es"], ["Per", "spective"], ["(", "except"], ["Gold", "en"], ["s", "afety"], ["constra", "int"], ["geomet", "ry"], ["ob", "jective"], ["paradigm", "s,"], ["(9", "),"], ["Bro", "ok"], ["bi", "parti"], ["pack", "age"], ["8-", "10pm"], ["determin", "istic"], ["Particip", "ation"], ["ax", "is"], ["ga", "ussian"], ["DN", "G"], ["leg", "al"], ["pl", "aced"], ["Syn", "tax"], ["syn", "tax"], ["Trac", "k"], ["engine", "ering,"], ["Frequ", "ently"], ["t", "entative"], ["T", "entative"], ["materials", "/csci"], ["google", ".com/"], ["Classi", "fication"], ["-", "Body"], ["Geomet", "ric"], ["Co", "author"], ["M", "echanism"], ["m", "echanism"], ["Extension", "s"], ["http://compsci.hunter.cuny.edu/~sweiss/", "courses/"], ["NOT", "E:"], ["Fi", "re"], ["(O", "H"], ["our", "nal"], ["ros", "oft"], ["Ch", "ild"], ["cons", "ult"], ["Educ", "ational"], ["contri", "butions"], ["Inser", "t"], ["Libr", "aries"], ["medi", "ate"], ["datas", "et"], ["CS54", "12"], ["Kemper", "."], ["kar", "ma"], ["wid", "th"], ["thur", "s"], ["c", "ident"], ["http://compsci.hunter.cuny.edu/~sweiss/", "course_"], ["Rele", "ases"], ["aud", "ience"], ["T", "ags"], ["Def", "enses"], ["att", "empt"], ["F", "rank"], ["argu", "ments"], ["No", "tifications"], ["no", "tification"], ["Camer", "as"], ["St", "ellar"], ["Bloc", "ks"], ["ab", "ilities"], ["de", "grees"], ["MBE", "_"], ["Collabor", "ation"], ["as", "sembly,"], ["R", "endering"], ["increasing", "ly"], ["Identi", "ty"], ["pic", "ture"], ["E", "rik"], ["sug", "ges"], ["Man", "ager"], ["recor", "dings"], ["Bran", "ches"], ["On-", "demand"], ["n", "onlinear"], ["Administ", "rator"], ["Reason", "ing"], ["Issu", "e"], ["Paradig", "ms"], ["s", "ensitive"], ["on-", "campus"], ["pol", "ynomial"], ["Cy", "bersecurity"], ["OB", "J"], ["S/", "U"], ["L", "QR"], ["R", "ens"], ["rem", "ote"], ["stu", "ff"], ["Commun", "ication"], ["j", "acent"], ["be", "havi"], ["Con", "ditions"], ["Kore", "an"], ["le", "aving"], ["ractic", "es"], ["deli", "ver"], ["240", "h"], ["s", "afe"], ["det", "ection,"], ["Gran", "ts"], ["18-", "447"], ["open-", "source"], ["Sy", "mbolic"], ["Traject", "ory"], ["In", "stead"], ["Sto", "chastic"], ["Associ", "ate"], ["Redd", "it"], ["eli", "hood"], ["Poly", "techn"], ["Contribut", "ors"], ["procedu", "res"], ["andrew.cmu", ".edu"], ["Assess", "ment"], ["Ler", "rel"], ["E", "uro"], ["Sar", "ah"], ["Lex", "icon"], ["br", "anch"], ["Re", "agent"], ["upy", "ter"], ["am", "ounts"], ["endor", "se"], ["p", "encil"], ["s", "olution,"], ["completen", "ess"], ["con", "ditions,"], ["surpr", "ising"], ["@cs.", "cmu.edu"], ["/home", "/"], ["classific", "ation,"], ["Valid", "ation"], ["https://", "sites."], ["definite", "ly"], ["Attend", "ance"], ["Un", "fortun"], ["mal", "icious"], ["(20", "24-34"], ["oc", "casion"], ["setup_", "wargame."], ["Bo", "olean"], ["Church", "ill"], ["B", "achelor"], ["am", "bd"], ["Ini", "tial"], ["wh", "atever"], ["tri", "vial"], ["Cali", "forni"], ["Requ", "est"], ["Uta", "h"], ["comb", "ine"], ["Mass", "achuse"], [".gi", "ti"], ["Artic", "ulated"], ["http://web", ".cs.uc"], [".", "obj"], ["appen", "dix"], ["dav", "is.edu/~"], ["1up", ".pdf"], ["rs", "s-new"], ["Denn", "is"], ["(2024", "):"], ["Charlot", "te"], ["Entry", "-level"], ["(optional", ")"], ["Ever", "ything"], ["biparti", "te"], ["http://compsci.hunter.cuny.edu/~sweiss/courses/", "csci"], ["http://compsci.hunter.cuny.edu/~sweiss/course_", "materials/csci"], ["Rens", "sel"], ["Polytechn", "ic"], ["Euro", "graphics"], ["https://sites.", "google.com/"], ["Unfortun", "ately,"], ["setup_wargame.", "sh"], ["Bachelor", "'s"], ["Massachuse", "t"], [".giti", "gn"], ["http://web.cs.uc", "davis.edu/~"], ["rss-new", "s-search"], ["Renssel", "aer"], [".gitign", "ore"], ["http://web.cs.ucdavis.edu/~", "gusfield"], ["d", "."], ["e", ")"], ["u", "i"], ["B", "S"], ["h", "."], ["g", "l"], ["l", "u"], ["z", "i"], ["S", "l"], ["e", "u"], ["r", "p"], ["5", "1"], ["4", "2"], ["D", "H"], ["s", "d"], ["T", "B"], ["x", "2"], ["o", "j"], ["T", "I"], ["(", "+"], ["\u00e2", "\u012a"], ["(", "I"], ["S", "k"], ["u", "v"], [")", ")"], ["P", "i"], ["P", ":"], ["(", "m"], ["A", "X"], ["e", "h"], ["O", "l"], ["d", "j"], ["u", "k"], ["X", "i"], ["T", "D"], ["F", "s"], ["W", "A"], ["v", "."], ["9", "1"], ["D", "r"], ["V", "e"], ["K", "R"], ["X", "Y"], ["-", "G"], ["O", "H"], ["C", "#"], ["T", "P"], ["b", "["], ["v", "6"], ["3", "%"], ["E", "K"], ["\u00c3", "\u00bc"], ["M", "G"], ["M", "N"], ["U", "v"], ["T", ":"], ["W", "W"], ["F", "C"], ["=", "P"], ["q", "C"], ["in", "?"], ["[", "in"], ["on", "!"], ["D", "on"], ["(", "on"], ["f", "on"], ["6", "th"], ["E", "th"], ["g", "or"], ["b", "or"], ["v", "or"], ["u", "es"], ["on", "es"], ["an", "ti"], ["S", "ti"], ["ti", "er"], ["G", "en"], ["w", "en"], ["y", "en"], ["c", "ou"], ["a", "ou"], ["K", "re"], ["er", "al"], ["(", "the"], ["ed", ")"], ["at", "on"], ["[", "at"], ["a", "ro"], ["ar", "en"], ["E", "ar"], ["ar", "X"], ["R", "and"], ["m", "and"], ["and", "en"], ["L", "and"], ["K", "le"], ["V", "as"], ["st", "at"], ["or", "st"], ["g", "ic"], ["ti", "se"], ["u", "ra"], ["w", "ra"], ["D", "ra"], ["ra", "re"], ["a", "de"], ["de", "v"], ["de", "h"], ["ation", ";"], ["ch", "/"], ["ou", "ter"], ["es", "ter"], ["at", "ter"], ["or", "ter"], ["si", "g"], ["si", "x"], ["re", "ver"], ["e", "ma"], ["be", "l"], ["gra", "tion"], ["gra", "y"], ["our", "s."], ["ent", "s."], ["ation", "s."], ["t", "s,"], ["ing", "s,"], ["v", "ol"], ["ol", "as"], ["ol", "i"], ["V", "ol"], ["S", "il"], ["ra", "il"], ["v", "il"], ["B", "ad"], ["M", "ad"], ["are", "as"], ["B", "us"], ["b", "us"], ["ot", "ing"], ["et", "z"], ["Pro", "t"], ["uc", "r"], ["b", "ur"], ["W", "ay"], ["p", "ay"], ["ect", "ing"], ["qu", "ad"], ["P", "ut"], ["id", "ed"], ["and", "id"], ["h", "op"], ["H", "op"], ["C", "ap"], ["(", "The"], ["\"", "The"], ["with", ","], ["-", "10"], ["ra", "tic"], ["pl", "ot"], ["St", "ay"], ["z", "el"], ["be", "el"], ["V", "el"], ["ud", "ge"], ["S", "ud"], ["re", "ci"], ["not", "ation"], ["co", "ol"], ["this", "."], ["out", "!"], ["age", ","], ["age", "-"], ["co", "ok"], ["R", "od"], ["\"", "),"], ["y", "ang"], ["H", "ang"], ["i", "tions"], ["sh", "ot"], [")", "**"], ["Comp", "are"], ["ence", "."], ["ha", "v"], ["ha", "o"], ["ex", "ha"], ["lo", "st"], ["lo", "se"], ["-", "by"], ["vers", "us"], ["s", "yst"], ["ess", "ay"], ["M", "ess"], ["L", "ess"], ["el", "lec"], ["5", "11"], ["C", "ach"], ["tic", "ore"], ["et", "te"], ["ag", "o"], ["up", ","], ["G", "up"], ["S", "par"], ["An", "im"], ["An", "g"], ["Con", "f"], ["Con", "duc"], ["As", "su"], ["ke", "iz"], ["sp", "am"], ["sp", "ac"], ["av", "or"], ["so", ","], ["ple", "arning"], ["um", "p"], ["um", "."], ["K", "um"], ["Ex", "per"], ["Se", "g"], ["In", "fer"], ["O", "ld"], ["able", "-"], ["ut", "able"], ["able", "."], ["en", "able"], ["un", "able"], ["Con", "struc"], ["J", "ack"], ["h", "ack"], ["student", "'s"], ["cl", "one"], ["ph", "one"], ["12", ","], ["mat", "es"], ["p", "do"], ["co", "des"], ["des", "k"], ["problem", "-"], ["problem", ","], ["use", "."], ["iz", "ations"], ["vers", "ary"], ["r", "ary"], ["li", "b"], ["li", "ang"], ["B", "ir"], ["l", "ing,"], ["t", "ing,"], ["ust", "ri"], ["30", "%"], ["me", "ant"], ["s", ")."], ["5", ")."], ["\\", ")."], ["P", "rou"], ["Le", "e"], ["Le", "v"], ["Y", "es."], ["pr", "ere"], ["C", "ast"], ["other", "s."], ["il", "og"], ["B", "14"], ["sp", "read"], ["6", "pm"], ["4", "pm"], [".c", "it"], ["B", "art"], ["del", "/"], ["no", "-"], ["inter", "view"], ["cri", "tic"], ["System", "s,"], ["cont", "est"], ["For", "ce"], ["\"", "Introduction"], ["computer", ","], ["computer", "."], ["ore", "tical"], ["op", "tical"], ["material", "s."], ["I", "mit"], ["Th", "ree"], ["time", "ly"], ["time", ":"], ["bu", "y"], ["tor", "s"], ["tu", "tor"], ["Co", "st"], ["Co", "ll"], ["Co", "ol"], ["Co", "ok"], ["enc", "es."], ["b", "rou"], ["M", "ich"], ["ur", "ich"], ["Exam", ":"], ["Ad", "ri"], ["ous", "ly"], ["ven", "ue"], ["6.", "9"], ["As", "ser"], ["it", "ting"], ["**CS", "E"], ["S", "oc"], ["oc", "c"], ["oc", "k"], ["ul", "man"], ["man", "."], ["b", "ick"], ["list", "?"], ["1:", "30"], ["10", "1:"], ["16", "1:"], ["low", "-"], ["low", "est"], ["t", "y,"], ["ima", "x"], ["post", "s"], ["f", "ish"], ["Fin", "d"], ["web", "page"], ["F", "act"], ["final", "."], ["Re", "vis"], ["HW", "1"], ["lab", "1"], ["ization", "."], ["D", "EE"], ["model", ","], ["Science", "."], ["Science", "**"], ["op", "tics"], ["stand", "ing"], ["09", ":"], ["Li", "b"], ["set", "."], ["2", "2:"], ["2:", "5"], ["(", "23"], ["17", "-"], ["Par", "k"], ["Par", "ti"], ["https://", "web"], ["G", "reg"], ["D", "istri"], ["per", "spec"], ["II", ":"], ["mis", "sing"], ["un", "its"], ["level", ","], ["level", "."], ["C", "level"], ["Class", "es,"], ["Class", "ical"], ["10", "3:"], ["Sh", "or"], ["3.", "4"], ["for", "get"], ["tri", "es"], ["ak", "es"], ["3", "/0"], ["pl", "ain"], ["them", ","], ["Of", "fer"], ["sch", "ne"], ["work", "load"], ["l", "er,"], ["k", "er,"], ["p", "ure"], ["appro", "val"], ["func", "tion,"], ["Analysis", "**"], ["network", "."], ["stud", "ies"], ["Tue", "/"], ["some", "what"], ["requi", "res"], ["PM", "-"], ["hand", "ed"], ["hand", "le"], ["hand", ","], ["In", "ference"], ["(", "28"], ["28", ":"], ["ID", ":"], ["Network", "s."], ["help", "."], ["Spring", "er,"], ["2", "2."], ["200", "2."], ["Wor", "st"], ["Tue", "Oct"], ["7:", "30"], ["j", "ors"], ["version", ","], ["there", "."], ["Ro", "ot"], ["J", ".,"], ["S", ".,"], ["D", ".,"], ["load", "ing."], ["M", "Eng"], ["d", "istribut"], ["writ", "es"], ["email", ","], ["Po", "is"], ["online", ","], [".html", ")"], ["f", "ron"], ["dis", "cre"], ["Thu", "Oct"], ["file", ","], ["http://www.cs.cornell", ".edu/~"], ["22", ")"], ["Im", "port"], ["right", "s,"], ["Office", ":"], ["for", "e,"], ["B", "run"], ["Jo", "int"], ["under", "take"], ["M", "ember"], ["down", ","], ["Video", ":"], ["ton", "-"], ["in", "ner"], ["coun", "ted"], ["typ", "es,"], ["UC", "B"], ["Des", "crip"], ["solution", "."], ["pe", "er"], ["ser", "ved"], ["Wednesday", "s"], ["semester", "s"], ["l", "aw"], ["Go", "ing"], ["Res", "pon"], ["ma", "xim"], ["15-", "45"], ["focus", "ing"], ["MIT", "/"], ["re", "grade"], ["(", "See"], ["submit", "ting"], ["47", "8"], ["(", "47"], ["5:", "00"], ["Pr", "inci"], ["question", "s,"], ["(", "even"], ["year", "."], ["year", "s,"], ["staff", ","], ["week", "07"], ["cred", "its"], ["well", "-"], ["Instructor", "s:"], ["e.g", ".,"], ["research", "."], ["2/", "2013"], ["29", "-"], ["atch", "."], ["struc", "tions,"], ["cred", "ential"], ["sur", "ve"], ["ar", "vard"], ["Arch", "it"], ["including", ":"], ["(", "including"], ["tool", "s,"], ["46", "21"], ["G", "ord"], ["add", "res"], ["cu", "it"], ["3-", "5"], ["1", "\\)"], ["\u00e2\u0122\u013f", "),"], ["log", "-"], ["upd", "ates"], ["theory", "."], ["mb", "ol"], ["Bas", "ics"], ["D", "ense"], ["List", "s,"], ["S", "ix"], ["27", "."], ["(", "27"], ["SP", "As"], ["du", "ality"], ["review", "s"], ["it", "self"], ["Internet", "/"], ["following", ":"], ["credit", "."], ["credit", ","], ["4/", "2013"], ["Cre", "ated"], ["c", "ris"], ["Th", "reading"], ["reading", "s,"], ["Process", "es"], ["Process", "or"], ["14", "/index.html"], ["vision", "."], ["s", "atis"], ["detail", "ed"], ["optim", "al"], ["engineering", "."], ["CS10", "7"], ["CS10", "9"], ["Sub", "set"], ["number", "s,"], ["functional", ","], ["Go", "als"], ["Com", "ment"], ["Rel", "ational"], ["Note", "book"], ["ser", "vice"], ["Ad", "vice"], ["midterm", ","], ["P", "IN"], ["cs.", "cornell.edu"], ["http://", "cs."], ["S", "AT"], ["31", "10:"], ["session", "s"], ["construc", "t"], ["Prerequis", "ite"], ["(", "both"], [".com/", "play"], ["Loc", "ks"], ["exercis", "es."], ["ev", "ent"], ["date", ","], ["2016", "/index.html"], ["correct", ","], ["to", "ward"], ["sy", "llab"], ["2014", "fall"], ["Thread", ","], ["ideas", "."], ["[", "comments"], ["reason", "ing"], ["Professor", ":"], ["iter", "ation,"], ["develop", "ment,"], ["h", "ints"], ["00-", "4:"], ["space", ","], ["oper", "ations,"], ["Dem", "on"], ["Fin", "ished"], ["security", "."], ["File", ","], ["des", "cent"], ["6.85", "8"], ["**", "6.85"], ["jo", "int"], ["divid", "ed"], ["Do", "es"], ["C", "AS"], ["mon", "th"], ["Mic", "ro"], ["pro", "pag"], ["-", "case"], ["6:", "30-"], ["Start", "ing"], ["name", ","], ["change", "."], ["E", "68"], ["tre", "ated"], ["St", "arter"], ["100", ":"], ["how", "ever,"], ["solving", "."], ["control", ","], ["By", "te"], ["at", "ures"], ["mathema", "tics,"], ["quiz", "z"], ["E", "ST"], ["37", "3"], ["37", "8-"], ["Test", "s"], ["manage", "ment,"], ["fact", "s."], ["begin", "s"], ["task", "s."], ["4", "@cornell.edu"], ["(", "IC"], ["\\(", "(0"], ["(0", "2/"], ["RP", "I"], ["St", "ony"], ["dat", "es,"], ["Out", "put"], ["T", "empl"], ["ex", "empl"], ["6", "pm."], ["11:59", "pm."], ["goal", "s."], ["mark", "et"], ["(", "SPA"], ["SPA", ","], ["SPA", "s,"], ["ed", "ited"], ["Pri", "or"], ["sh", "ared"], ["string", "s."], ["graded", ","], ["war", "game"], ["cle", "ar"], ["ti", "tle"], ["Se", "tup"], ["V", "oid"], ["Con", "dition"], ["sign", "-up"], ["En", "viron"], ["resources", ":"], ["Processing", "**"], ["break", "down"], ["Fl", "ash"], ["ro", "ft"], ["uni", "que"], ["cap", "able"], ["meas", "ures"], ["iliar", "ity"], ["Vision", "**"], ["Di", "rect"], ["Dem", "o,"], ["bal", "an"], ["bal", "ance"], ["det", "ect"], ["(20", "),"], ["Dif", "fer"], ["Vari", "able"], ["S", "mi"], ["sequ", "ential"], ["Call", "ing"], ["direc", "ted"], ["games", ":"], ["Structure", "d"], ["Co", "ordin"], ["493.", "6"], ["493.", "7"], ["major", "ity"], ["9/", "18"], ["CSE", "/"], ["Tim", "oth"], ["Vis", "it"], ["sit", "es,"], ["ac", "cur"], ["format", "."], ["match", "ing,"], ["s", "light"], ["permission", "s."], ["Kernel", "s"], ["Library", ","], ["(", "July"], ["-", "FAQ"], ["week", "04"], ["12:", "55"], ["wide", "ly"], ["pop", "ulation"], ["110", "9"], ["In", "struction"], ["ut", "-cs"], ["crib", "ing"], ["print", "ing"], ["some", "times"], ["propos", "ed"], ["Optional", ":"], ["weight", "s"], ["period", "ic"], ["prior", "ity"], ["fa", "/index."], ["technolog", "ical"], ["Ge", "off"], ["SS", "H"], ["abil", "ization"], ["Zh", "ang,"], ["Inter", "active"], ["CS106", "A"], ["familiar", "ity"], ["John", "son"], ["Nor", "vig"]], "specials": {"<pad>": 256, "<doc>": 257, "<eod>": 258, "<unk>": 259}}